{
  "</s>": 0,
  "<unk>": 1,
  ",": 2,
  ".": 3,
  "\u2581the": 4,
  "\u2581de": 5,
  "s": 6,
  "'": 7,
  "\u2581of": 8,
  "\u2581a": 9,
  "\u2581and": 10,
  "\u2581to": 11,
  "\u2581la": 12,
  "\u2581in": 13,
  "-": 14,
  "\u2581que": 15,
  "\u2581en": 16,
  "?": 17,
  "\u2581et": 18,
  "\u2581l": 19,
  "\u2581I": 20,
  "\u2581(": 21,
  "\u2581for": 22,
  "\u2581-": 23,
  "\u2581des": 24,
  "\u2581that": 25,
  "\u2581is": 26,
  "\u2581le": 27,
  "\u2581\u00e0": 28,
  "\u2581les": 29,
  "\u2581y": 30,
  "\u2581you": 31,
  "\u2581on": 32,
  "\u2581un": 33,
  "\u2581e": 34,
  ":": 35,
  "\u2581d": 36,
  ")": 37,
  "\u2581el": 38,
  "\u2581": 39,
  "e": 40,
  "\u2581with": 41,
  "\u2581The": 42,
  "t": 43,
  "\u2581be": 44,
  "\u2581o": 45,
  "\u2581di": 46,
  "\u2581du": 47,
  "\u2581as": 48,
  "a": 49,
  "\u2581se": 50,
  "\u2581\"": 51,
  "\u2581it": 52,
  "\u2581los": 53,
  "\u2581del": 54,
  "\u2581'": 55,
  "\u2581by": 56,
  "\u2581are": 57,
  "\u2581para": 58,
  "\u2581con": 59,
  "r": 60,
  "\u2581A": 61,
  "\u2581no": 62,
  "\u2581this": 63,
  ";": 64,
  "...": 65,
  "re": 66,
  "\u2581las": 67,
  "\u2581or": 68,
  "\u2581was": 69,
  "o": 70,
  "\u2581not": 71,
  "i": 72,
  "\u2581do": 73,
  "m": 74,
  "\u2581pour": 75,
  "\u2581have": 76,
  "\u2581from": 77,
  "!": 78,
  "\u2581dans": 79,
  "\u2581at": 80,
  "es": 81,
  "\u2581me": 82,
  "\u2581por": 83,
  "\u2581an": 84,
  "\u2581au": 85,
  "\u2581una": 86,
  "\u2581il": 87,
  "\u2581all": 88,
  "\u2581sur": 89,
  "n": 90,
  "/": 91,
  "\u2581par": 92,
  "\u2581une": 93,
  "\u2581La": 94,
  "\u2581will": 95,
  "\u2581est": 96,
  "\u2581da": 97,
  "\u2581your": 98,
  "\u2581which": 99,
  "\u2581qui": 100,
  "\u2581per": 101,
  "d": 102,
  "\u2581we": 103,
  "\u2581al": 104,
  "\u2581can": 105,
  "\u2581s": 106,
  "\u2581In": 107,
  "\u2581has": 108,
  "ing": 109,
  "\u2581su": 110,
  "\u2581You": 111,
  "\u2581ou": 112,
  "\u2581che": 113,
  "\u2581It": 114,
  "to": 115,
  "\u2581No": 116,
  "\u2581its": 117,
  "te": 118,
  "\u2581their": 119,
  "\u2581ce": 120,
  "\u2581Le": 121,
  "\u2581he": 122,
  "\u2581em": 123,
  "\u2581es": 124,
  "le": 125,
  "\u2581pas": 126,
  ").": 127,
  "\u2581si": 128,
  "er": 129,
  "\u2581E": 130,
  "y": 131,
  "\"": 132,
  "ed": 133,
  "\u2581\u00e9": 134,
  "\u2581C": 135,
  "\u2581been": 136,
  "\u2581one": 137,
  "\u2581ne": 138,
  "\u2581non": 139,
  "do": 140,
  "\u2581aux": 141,
  "\u2581L": 142,
  "\u25811": 143,
  "\u2581they": 144,
  "\u2581were": 145,
  "\u2581but": 146,
  "ta": 147,
  "\u2581my": 148,
  "A": 149,
  "\u2581como": 150,
  "\u2581com": 151,
  "\u2581i": 152,
  "\u2581out": 153,
  "se": 154,
  "\u2581other": 155,
  "\u2581also": 156,
  "\u2581more": 157,
  "\u2581O": 158,
  "\u2581n": 159,
  "),": 160,
  "\u2581En": 161,
  "\u2581um": 162,
  "\u2581S": 163,
  "\u2581lo": 164,
  "\u2581re": 165,
  "S": 166,
  "ti": 167,
  "da": 168,
  "\u2581about": 169,
  "\u2581Commission": 170,
  "\u2581his": 171,
  "\u2581plus": 172,
  "\u2581n\u00e3o": 173,
  "est": 174,
  "\u2581:": 175,
  "\u2581We": 176,
  "\u2581so": 177,
  "un": 178,
  "\u25812": 179,
  "\u2581qu": 180,
  "\u2581there": 181,
  "\u2581This": 182,
  "\u2581what": 183,
  "\u2581up": 184,
  "\u2581had": 185,
  "c": 186,
  "\u2581know": 187,
  "\u2581El": 188,
  "\u2581should": 189,
  "\u2581sont": 190,
  "\u25813": 191,
  "\u2581sobre": 192,
  "\u2581would": 193,
  "u": 194,
  "\u2581avec": 195,
  "\u2581\u00een": 196,
  "\u2581who": 197,
  "\u2581ha": 198,
  "l": 199,
  "\u2581our": 200,
  "no": 201,
  "ve": 202,
  "ndo": 203,
  "nt": 204,
  "\u2581Il": 205,
  "\u2581time": 206,
  "\u2581son": 207,
  "\u2581\u00bf": 208,
  "in": 209,
  "\u2581like": 210,
  "\u2581Les": 211,
  "\u2581entre": 212,
  "\u2581if": 213,
  "\u2581uma": 214,
  "de": 215,
  "\u2581?": 216,
  "\u2581\u00e8": 217,
  "C": 218,
  "\u00e9": 219,
  "\u2581What": 220,
  "\u2581s\u0103": 221,
  "\u2581And": 222,
  "\u2581os": 223,
  "\u2581them": 224,
  "ul": 225,
  "lo": 226,
  "en": 227,
  "\u2581just": 228,
  "\u2581He": 229,
  "\u2581sa": 230,
  "il": 231,
  "\u2581into": 232,
  "al": 233,
  "\u2581della": 234,
  "ll": 235,
  "\u258110": 236,
  "\u2581vous": 237,
  "\u2581any": 238,
  "\u2581European": 239,
  "z": 240,
  "\u2581information": 241,
  "\u2581new": 242,
  "\u2581B": 243,
  "\u2581right": 244,
  "\u2581\u00e9t\u00e9": 245,
  "\u25815": 246,
  "\u25814": 247,
  "\u2581ont": 248,
  "la": 249,
  "\u2581shall": 250,
  "\u2581here": 251,
  "on": 252,
  "\u2581States": 253,
  "g": 254,
  "\u2581don": 255,
  "\u2581c": 256,
  "\u2581este": 257,
  "\u2581these": 258,
  "b": 259,
  "\u2581may": 260,
  "\u2581est\u00e1": 261,
  "\u2581mais": 262,
  "\u2581te": 263,
  "\u2581only": 264,
  "\u2581when": 265,
  "\u2581him": 266,
  "ly": 267,
  "\u2581such": 268,
  "ment": 269,
  "ce": 270,
  "\u2581her": 271,
  "me": 272,
  "\u2581m\u00e1s": 273,
  "\u2581De": 274,
  "\u2581people": 275,
  "\u2581work": 276,
  "\u2581Se": 277,
  "\u2581than": 278,
  "ci": 279,
  "\u2581us": 280,
  "\u2581na": 281,
  "\u2581Nations": 282,
  "une": 283,
  "\u2581Council": 284,
  "\u2581some": 285,
  "\u2581United": 286,
  "\u2581dos": 287,
  "\u2581come": 288,
  "ra": 289,
  "\u2581under": 290,
  "ar": 291,
  "\u2581get": 292,
  "\u2581services": 293,
  "\u2581cu": 294,
  "\u2581ser": 295,
  "\u2581\u00eatre": 296,
  "\u0103": 297,
  "\u2581P": 298,
  "\u2581Canada": 299,
  "ca": 300,
  "\u2581two": 301,
  "mente": 302,
  "\u2581between": 303,
  "\u2581need": 304,
  "\u2581M": 305,
  "\u2581D": 306,
  "mos": 307,
  "\u2581use": 308,
  "\u2581first": 309,
  "\u2581those": 310,
  "\u25816": 311,
  "\u2581go": 312,
  "\u2581must": 313,
  "\u2581now": 314,
  "va": 315,
  "\u2581\u00ab": 316,
  "\u2581international": 317,
  "\u2581Committee": 318,
  "\u2581made": 319,
  "\u2581over": 320,
  "\u2581well": 321,
  "am": 322,
  "\u2581take": 323,
  "\u2581where": 324,
  "\u2581could": 325,
  "\u2581sus": 326,
  "\u2581Si": 327,
  "\u2581years": 328,
  "\u2581want": 329,
  "\u258118": 330,
  "na": 331,
  "\u2581\u2014": 332,
  "\u2581ma": 333,
  "\u2581tu": 334,
  "ci\u00f3n": 335,
  "\u00e7\u00e3o": 336,
  "\u258115": 337,
  "\u2581So": 338,
  "\u2581make": 339,
  "\u2581care": 340,
  "\u2581pe": 341,
  "\u258120": 342,
  "\u2581That": 343,
  "co": 344,
  "\u2581[": 345,
  "\u2581nous": 346,
  "\u2581Je": 347,
  "\u2581mi": 348,
  "\u2581N\u00e3o": 349,
  "\u2581am": 350,
  "\u2581countries": 351,
  "\u2581see": 352,
  "\u2581very": 353,
  "\u2581place": 354,
  "is": 355,
  "\u2581through": 356,
  "\u2581But": 357,
  "\u2581national": 358,
  "\u2581social": 359,
  "\u2581As": 360,
  "\u2581part": 361,
  "\u2581public": 362,
  "\u2581If": 363,
  "\u2581eu": 364,
  "\u2581T": 365,
  "\u2581development": 366,
  "\u2581\u2013": 367,
  "\u2581nu": 368,
  "]": 369,
  "\u25817": 370,
  "\u2581Article": 371,
  "B": 372,
  "\u2581F": 373,
  "di": 374,
  "\u2581she": 375,
  "\u2581way": 376,
  "\u2581Member": 377,
  "th": 378,
  "\u2581Re": 379,
  "\u2581ca": 380,
  "h": 381,
  "\u2581cette": 382,
  "\u2581ces": 383,
  "\u258130": 384,
  "\u00e1": 385,
  "ne": 386,
  "2": 387,
  "\u2581comme": 388,
  "I": 389,
  "\u25818": 390,
  "\u2581think": 391,
  "\u2581good": 392,
  "\u2581bien": 393,
  "\u2581leur": 394,
  "\u2581For": 395,
  "O": 396,
  "\u2581pays": 397,
  ".\"": 398,
  "\u2581General": 399,
  "\u2581nos": 400,
  "\u258112": 401,
  "\u2581G": 402,
  "\u2581how": 403,
  "\u00f3": 404,
  "\u2581dei": 405,
  "\u2581did": 406,
  "it": 407,
  "E": 408,
  "\u2581most": 409,
  "\u2581report": 410,
  "os": 411,
  "\u2581p": 412,
  "or": 413,
  "\u2581support": 414,
  "\u2581R": 415,
  "ba": 416,
  "\u2581said": 417,
  "ro": 418,
  "\u2581sono": 419,
  "\u2581system": 420,
  "\u2581\u015fi": 421,
  "\u2581On": 422,
  "L": 423,
  "dos": 424,
  "\u2581after": 425,
  "\u2581c\u0103": 426,
  "\u2581dell": 427,
  "\u2581used": 428,
  "an": 429,
  "\u2581Mr": 430,
  "\u2581There": 431,
  "\u2581m": 432,
  "p": 433,
  "\".": 434,
  "\u2581je": 435,
  "\u2581esta": 436,
  "\u2581parte": 437,
  "\u2581back": 438,
  "zione": 439,
  "\u2581They": 440,
  "\u2581rights": 441,
  "\u2581mai": 442,
  "\u2581voc\u00ea": 443,
  "\u25819": 444,
  "\u2581programme": 445,
  "\u2581year": 446,
  "ma": 447,
  "li": 448,
  "as": 449,
  "\u2581Comit\u00e9": 450,
  "\u2581being": 451,
  "\u2581order": 452,
  "\u2581then": 453,
  "\u2581got": 454,
  "\u2581fait": 455,
  "\u2581including": 456,
  "\u2581because": 457,
  "\u2581before": 458,
  "\u2581To": 459,
  "\u2581number": 460,
  "ia": 461,
  "\u2581world": 462,
  "das": 463,
  "\u258119": 464,
  "\u2581State": 465,
  "\u2581&": 466,
  "\u2581important": 467,
  "\u2581particular": 468,
  "ai": 469,
  "x": 470,
  "\u2581many": 471,
  "\u2581man": 472,
  "\u2581same": 473,
  "\u2581point": 474,
  "D": 475,
  "\u2581God": 476,
  "\u2581human": 477,
  "\u2581Con": 478,
  "\u2581ci": 479,
  "nte": 480,
  "k": 481,
  "\u2581life": 482,
  "\u2581within": 483,
  "\u2581J": 484,
  "\u2581ses": 485,
  "\u2581delle": 486,
  "\u2581data": 487,
  "\u2581ad": 488,
  "\u2581down": 489,
  "ant": 490,
  "\u2581against": 491,
  "que": 492,
  "\u2581co": 493,
  "mo": 494,
  "\u2581even": 495,
  "\u2581Un": 496,
  "ri": 497,
  "\u2581va": 498,
  "\u2581...": 499,
  "\u2581todos": 500,
  "\u2581long": 501,
  "\u2581plan": 502,
  "mi": 503,
  "\u2581base": 504,
  "\u2581sua": 505,
  "\u2581\u00c9": 506,
  "\u2581All": 507,
  "\u2581day": 508,
  "\u2581inter": 509,
  "\u2581Eu": 510,
  "f": 511,
  "\u2581children": 512,
  "\u2581possible": 513,
  "\u2581service": 514,
  "\u2581pentru": 515,
  "\u2581N": 516,
  "\u2581protection": 517,
  "\u2581Ce": 518,
  "\u2581going": 519,
  "3": 520,
  "\u2581peut": 521,
  "vi": 522,
  "\u2581ri": 523,
  "\u2581era": 524,
  "tion": 525,
  "(": 526,
  "P": 527,
  "\u2581pre": 528,
  "\u258117": 529,
  "\u2581Al": 530,
  "\u258116": 531,
  "\u2581ex": 532,
  "\u2581%": 533,
  "\u2581following": 534,
  "\u2581each": 535,
  "\u2581nel": 536,
  "\u2581Oh": 537,
  "tu": 538,
  "\u2581conditions": 539,
  "\u2581women": 540,
  "\u258114": 541,
  "\u2581ao": 542,
  "\u2581Do": 543,
  "\u2581pro": 544,
  "\u2581country": 545,
  "\u2581case": 546,
  "us": 547,
  "\u2581measures": 548,
  "\u2581car": 549,
  "\u258111": 550,
  "ation": 551,
  "F": 552,
  "ga": 553,
  "T": 554,
  "go": 555,
  "\u2581Por": 556,
  "\u0163i": 557,
  "\u2581Convention": 558,
  "com": 559,
  "\u2581Well": 560,
  "\u2581lui": 561,
  "\u2581b": 562,
  "\u2581fi": 563,
  "\u2581tout": 564,
  "able": 565,
  "\u2581help": 566,
  "\u2581question": 567,
  "\u2581tra": 568,
  "\u2581She": 569,
  "\u2581during": 570,
  "\u2581say": 571,
  "\u2581Estados": 572,
  "che": 573,
  "\u2581Union": 574,
  "\u2581!": 575,
  "\u2581d\u00e9veloppement": 576,
  "\u2581V": 577,
  "\u2581three": 578,
  "\u2581Regulation": 579,
  "\u258125": 580,
  "\u2581contra": 581,
  "les": 582,
  "\u2581tous": 583,
  "\u2581session": 584,
  "v": 585,
  "\u2581Conseil": 586,
  "\u2581total": 587,
  "\u2581situation": 588,
  "\u2581activities": 589,
  "\u2581faire": 590,
  "\u2581without": 591,
  "\u2581set": 592,
  "\u2581both": 593,
  "ou": 594,
  "\u258113": 595,
  "\u2581Community": 596,
  "\u2581din": 597,
  "\u2581K": 598,
  "\u2581das": 599,
  "\u2581does": 600,
  "\u2581area": 601,
  "1": 602,
  "\u2581law": 603,
  "G": 604,
  "\u2581alla": 605,
  "ge": 606,
  "\",": 607,
  "\u2581votre": 608,
  "\u2581general": 609,
  "\u2581\u0219i": 610,
  "\u2581much": 611,
  "\u258124": 612,
  "\u2581How": 613,
  "\u2581d\u00e9": 614,
  "at": 615,
  "\u2581Non": 616,
  "\u2581level": 617,
  "\u2581ai": 618,
  "\u2581last": 619,
  "\u2581find": 620,
  "\u2581available": 621,
  "man": 622,
  "\u2581provide": 623,
  "\u2581Los": 624,
  "\u2581own": 625,
  "\u2581still": 626,
  "\u2581local": 627,
  "\u2581_": 628,
  "\u2581Nu": 629,
  "\u00ed": 630,
  "\u2581At": 631,
  "\u2581foi": 632,
  "\u2581deux": 633,
  "\u2581health": 634,
  "\u2581Ma": 635,
  "\u2581programmes": 636,
  "H": 637,
  "\u2581too": 638,
  "\u2581Y": 639,
  "\u2581\u00c9tats": 640,
  "\u2581products": 641,
  "\u2581fin": 642,
  "\u2581cas": 643,
  "\u2581economic": 644,
  "\u2581high": 645,
  "\u2581travail": 646,
  "\u2581policy": 647,
  "\u2581Mi": 648,
  "\u2581ainsi": 649,
  "\u2581Me": 650,
  "\u2581pi\u00f9": 651,
  "\u2581process": 652,
  "\u2581droits": 653,
  "\u2581todo": 654,
  "\u2581different": 655,
  "\u2581rapport": 656,
  "\u2581>": 657,
  "\u2581provided": 658,
  "ni": 659,
  "\u2581best": 660,
  "\u2581autres": 661,
  "\u2581control": 662,
  "\u258121": 663,
  "\u2581tambi\u00e9n": 664,
  "CE": 665,
  "\u2581gonna": 666,
  "\u2581leurs": 667,
  "\u2581ele": 668,
  "M": 669,
  "\u2581New": 670,
  "\u2581H": 671,
  "\u2581forma": 672,
  "\u2581action": 673,
  "\u2581sub": 674,
  "ur": 675,
  "\u2581isso": 676,
  "\u2581period": 677,
  "\u2581/": 678,
  "V": 679,
  "\u2581\u00e9galement": 680,
  "EC": 681,
  "\u2581market": 682,
  "au": 683,
  "ciones": 684,
  "\u2581give": 685,
  "\u2581m\u00eame": 686,
  "\u2581Europe": 687,
  "\u2581application": 688,
  "K": 689,
  "\u2581financial": 690,
  "\u00e0": 691,
  "ria": 692,
  "\u2581respect": 693,
  "t\u00e9": 694,
  "\u2581gli": 695,
  "mento": 696,
  "\u2581aussi": 697,
  "\u2581Es": 698,
  "el": 699,
  "\u2581Per": 700,
  "\u2581date": 701,
  "\u2581something": 702,
  "\u2581mas": 703,
  "\u25810": 704,
  "\u2581end": 705,
  "\u2581nombre": 706,
  "per": 707,
  "\u2581EU": 708,
  "\u2581production": 709,
  "\u2581Yeah": 710,
  "\u2581really": 711,
  "\u2581off": 712,
  "\u2581since": 713,
  "\u2581parties": 714,
  "\u2581little": 715,
  "\u2581implementation": 716,
  "\u2581seu": 717,
  "\u258122": 718,
  "\u2581site": 719,
  "the": 720,
  "ter": 721,
  "\u2581ensure": 722,
  "\u2581International": 723,
  "\u2581questions": 724,
  "\u2581Tu": 725,
  "\u2581free": 726,
  "\u2581membres": 727,
  "em": 728,
  "\u2581pa\u00edses": 729,
  "\u2581taken": 730,
  "\u2581vez": 731,
  "ine": 732,
  "\u2581article": 733,
  "\u2581due": 734,
  "\u258131": 735,
  "N": 736,
  "\u2581sector": 737,
  "\u2581never": 738,
  "\u2581ver": 739,
  "\u2581meeting": 740,
  "ie": 741,
  "\u2581grande": 742,
  "\u2581My": 743,
  "\u2581great": 744,
  "\u2581sin": 745,
  "W": 746,
  "\u2581final": 747,
  "\u2581ti": 748,
  "\u2581while": 749,
  "\u2581every": 750,
  "\u2581Government": 751,
  "\u2581real": 752,
  "\u2581r\u00e9": 753,
  "con": 754,
  "\u2581face": 755,
  "\u2581han": 756,
  "\u2581puede": 757,
  "sa": 758,
  "\u2581efforts": 759,
  "w": 760,
  "cu": 761,
  "pa": 762,
  "\u2581President": 763,
  "\u2581Comisi\u00f3n": 764,
  "up": 765,
  "\u2581better": 766,
  "ver": 767,
  "\u2581means": 768,
  "\u2581special": 769,
  "\u2581resolution": 770,
  "chi": 771,
  "\u2581security": 772,
  "\u2581Lo": 773,
  "\u2581areas": 774,
  "ic": 775,
  "\u2581sous": 776,
  "\u2581tell": 777,
  "\u2581access": 778,
  "\u2581certain": 779,
  "\u258123": 780,
  "\u2581necessary": 781,
  "\u2581members": 782,
  "\u2581casa": 783,
  "\u2581further": 784,
  "\u2581working": 785,
  "\u2581water": 786,
  "Y": 787,
  "t\u0103": 788,
  "\u2581found": 789,
  "\u2581bem": 790,
  "\u2581didn": 791,
  "rea": 792,
  "\u2581U": 793,
  "\u2581sistema": 794,
  "\u2581pero": 795,
  "\u2581view": 796,
  "so": 797,
  "\u2581tem": 798,
  "\u2581management": 799,
  "\u2581decision": 800,
  "\u2581legal": 801,
  "\u2581second": 802,
  "4": 803,
  "\u2581home": 804,
  "\u2581change": 805,
  "\u2581days": 806,
  "\u2581contre": 807,
  "\u2581family": 808,
  "\u2581t": 809,
  "\u2581When": 810,
  "\u2581look": 811,
  "\u2581vi": 812,
  "vo": 813,
  "elle": 814,
  "\u2581Dans": 815,
  "\u2581another": 816,
  "zioni": 817,
  "\u2581name": 818,
  "\u2581Co": 819,
  "\u2581Unidas": 820,
  "\u2581s\u00e9curit\u00e9": 821,
  "ers": 822,
  "\u2581far": 823,
  "\u2581II": 824,
  "\u2581essere": 825,
  "\u2581mean": 826,
  "\u2581million": 827,
  "\u2581\u00a1": 828,
  "\u2581\u00bb": 829,
  "\u2581Naciones": 830,
  "\u2581caso": 831,
  "\u2581around": 832,
  "\u2581document": 833,
  "\u2581regional": 834,
  "\u2581put": 835,
  "\u2581business": 836,
  "\u2581doit": 837,
  "\u2581based": 838,
  "je": 839,
  "\u2581dont": 840,
  "\u00e7\u00f5es": 841,
  "\u2581elle": 842,
  "\u2581account": 843,
  "be": 844,
  "\u258150": 845,
  "\u2581training": 846,
  "\u2581population": 847,
  "\u2581durante": 848,
  "The": 849,
  "R": 850,
  "\u2581person": 851,
  "\u2581cooperation": 852,
  "\u2581group": 853,
  "\u2581December": 854,
  "\u2581regard": 855,
  "\u2581accordance": 856,
  "\u2581Des": 857,
  "\u2581love": 858,
  "\u2581sans": 859,
  "\u2581vida": 860,
  "\u2581ta": 861,
  "\u2581questo": 862,
  "\u2581why": 863,
  "\u2581given": 864,
  "\u2581again": 865,
  "\u2581Pro": 866,
  "\u2581\u00e9tait": 867,
  "\u2581full": 868,
  "\u2581transport": 869,
  "\u2581main": 870,
  "lor": 871,
  "\u2581\u20ac": 872,
  "\u2581Why": 873,
  "\u2581already": 874,
  "\u2581Voc\u00ea": 875,
  "\u2581Di": 876,
  "\u2581Na": 877,
  "\u2581present": 878,
  "\u2581resources": 879,
  "\u2581continue": 880,
  "r\u00e1": 881,
  "ton": 882,
  "\u2581institutions": 883,
  "\u2581let": 884,
  "\u2581personnes": 885,
  "\u2581type": 886,
  "\u2581anti": 887,
  "\u2581ar": 888,
  "za": 889,
  "\u2581W": 890,
  "\u2581ter": 891,
  "\u2581droit": 892,
  "are": 893,
  "\u2581always": 894,
  "\u2581personal": 895,
  "\u2581desarrollo": 896,
  "ado": 897,
  "\u258128": 898,
  "ez": 899,
  "\u2581presente": 900,
  "\u2581Pour": 901,
  "\u00e9s": 902,
  "\u2581solo": 903,
  "\u2581An": 904,
  "\u2581quando": 905,
  "\u2581Para": 906,
  "\u2581ni": 907,
  "ului": 908,
  "\u2581men": 909,
  "\u2581cada": 910,
  "ir": 911,
  "\u2581informaci\u00f3n": 912,
  "\u2581things": 913,
  "\u2581vie": 914,
  "\u2581o\u00f9": 915,
  "\u2581mesures": 916,
  "\u2581pode": 917,
  "\u2581among": 918,
  "du": 919,
  "\u2581issues": 920,
  "\u2581These": 921,
  "\u00eda": 922,
  "\u2581cours": 923,
  "\u2581uno": 924,
  "\u2581Assembly": 925,
  "ent": 926,
  "\u2581Au": 927,
  "\u258127": 928,
  "\u2581Consejo": 929,
  "\u2581as\u00ed": 930,
  "\u2581political": 931,
  "\u258126": 932,
  "\u2581budget": 933,
  "\u2581file": 934,
  "\u2581desde": 935,
  "ons": 936,
  "\u2581projet": 937,
  "_": 938,
  "\u2581Las": 939,
  "ron": 940,
  "\u2581tempo": 941,
  "\u2581paragraph": 942,
  "ry": 943,
  "\u25811,": 944,
  "\u2581DE": 945,
  "\u2581Parliament": 946,
  "qui": 947,
  "\u2581j": 948,
  "\u2581doing": 949,
  "ate": 950,
  "\u2581future": 951,
  "\u2581large": 952,
  "\u2581course": 953,
  "\u2581small": 954,
  "\u2581education": 955,
  "ja": 956,
  "\u2581project": 957,
  "\u2581assistance": 958,
  "\u2581Nous": 959,
  "\u2581partie": 960,
  "\u2581100": 961,
  "\u2581relevant": 962,
  "\u2581research": 963,
  "\u2581meu": 964,
  "\u2581basis": 965,
  "\u2581However": 966,
  "\u2581Now": 967,
  "\u2581lugar": 968,
  "\u2581May": 969,
  "\u2581s\u00e3o": 970,
  "\u2581mise": 971,
  "\u2581thing": 972,
  "dor": 973,
  "\u2581might": 974,
  "si": 975,
  "\u2581Don": 976,
  "\u2581quality": 977,
  "\u2581needs": 978,
  "\u2581cui": 979,
  "\u2581cent": 980,
  "\u2581together": 981,
  "\u2581adopted": 982,
  "\u2581position": 983,
  "\u2581Hotel": 984,
  "\u2581mis": 985,
  "\u2581Yes": 986,
  "\u2581France": 987,
  "\u2581specific": 988,
  "\u2581Republic": 989,
  "\u2581compte": 990,
  "\u00fa": 991,
  "\u2581importante": 992,
  "\u2581a\u00f1os": 993,
  "\u2581mon": 994,
  "\u2581government": 995,
  "\u2581Group": 996,
  "\u00bb": 997,
  "\u2581Su": 998,
  "\u2581Vous": 999,
  "ner": 1000,
  "\u2581soit": 1001,
  ");": 1002,
  "ch": 1003,
  "io": 1004,
  "\u2581activit\u00e9s": 1005,
  "zi": 1006,
  "\u2581force": 1007,
  "\u2581Da": 1008,
  "\u2581San": 1009,
  "\u2581medidas": 1010,
  "\u2581fact": 1011,
  "ity": 1012,
  "bo": 1013,
  "ble": 1014,
  "\u2581dar": 1015,
  "\u2581June": 1016,
  "\u2581Par": 1017,
  "\u2581Come": 1018,
  "\u2581Your": 1019,
  "\u2581form": 1020,
  "sse": 1021,
  "\u2581ans": 1022,
  "\u2581Com": 1023,
  "\u2581Unies": 1024,
  "\u2581g\u00e9n\u00e9ral": 1025,
  "\u2581include": 1026,
  "\u2581call": 1027,
  "\u2581away": 1028,
  "\u2581Mas": 1029,
  "\u2581afin": 1030,
  "\u2581next": 1031,
  "\u2581nella": 1032,
  "\u2581fue": 1033,
  "\u25811.": 1034,
  "\u2581party": 1035,
  "\u2581example": 1036,
  "\u2581anche": 1037,
  "\u2581cuando": 1038,
  "\u2581fa": 1039,
  "\u258129": 1040,
  "\u2581Am": 1041,
  "\u2581fost": 1042,
  "\u2581cadre": 1043,
  "autres": 1044,
  "\u2581toutes": 1045,
  "\u2581results": 1046,
  "\u2581common": 1047,
  "\u2581able": 1048,
  "gi": 1049,
  "\u2581todas": 1050,
  "tro": 1051,
  "fa": 1052,
  "\u2581night": 1053,
  "ck": 1054,
  "\u2581cases": 1055,
  "\u2581tr\u00e8s": 1056,
  "\u2581derechos": 1057,
  "ex": 1058,
  "\u2581With": 1059,
  "\u2581mundo": 1060,
  "\u2581using": 1061,
  "\u2581tiene": 1062,
  "\u258140": 1063,
  "\u2581today": 1064,
  "nos": 1065,
  "\u2581sea": 1066,
  "General": 1067,
  "\u2581syst\u00e8me": 1068,
  "\u2581Ha": 1069,
  "\u2581notre": 1070,
  "\u2581jour": 1071,
  "\u2581Can": 1072,
  "\u2581increase": 1073,
  "\u2581Te": 1074,
  "\u2581donn\u00e9es": 1075,
  "\u2581Development": 1076,
  "\u2581therefore": 1077,
  "\u2581ya": 1078,
  "\u2581product": 1079,
  "\u2581muito": 1080,
  "\u2581Social": 1081,
  "son": 1082,
  "\u2581ho": 1083,
  "\u2581related": 1084,
  "\u2581\u00c0": 1085,
  "\u2581National": 1086,
  "\u2581hotel": 1087,
  "\u2581authorities": 1088,
  "\u2581km": 1089,
  "po": 1090,
  "\u2581aqui": 1091,
  "\u2581hacer": 1092,
  "\u2581held": 1093,
  "\u2581Secretary": 1094,
  "\u2581dal": 1095,
  "fi": 1096,
  "\u2581moment": 1097,
  "\u2581called": 1098,
  "\u2581appropriate": 1099,
  "\u2581tipo": 1100,
  "ten": 1101,
  "\u2581Sim": 1102,
  "pe": 1103,
  "\u2581trade": 1104,
  "\u2581global": 1105,
  "\u2581Programme": 1106,
  "\u2581muy": 1107,
  "\u2581Go": 1108,
  "\u2581state": 1109,
  "\u2581ra": 1110,
  "\u2581room": 1111,
  "\u2581open": 1112,
  "\u2581house": 1113,
  "\u2581Este": 1114,
  "\u2581sera": 1115,
  "\u2581required": 1116,
  "\u2581done": 1117,
  "um": 1118,
  "\u2581community": 1119,
  "\u2581peuvent": 1120,
  "\u2581qu\u00e9": 1121,
  "\u2581Directive": 1122,
  "\u2581few": 1123,
  "\u2581persons": 1124,
  "\u2581Where": 1125,
  "car": 1126,
  "\u2581art\u00edculo": 1127,
  "\u2581Vi": 1128,
  "\u2581Ne": 1129,
  "\u2581online": 1130,
  "\u2581participation": 1131,
  "J": 1132,
  "\u2581tanto": 1133,
  "\u2581least": 1134,
  "et": 1135,
  "\u2581old": 1136,
  "\u2581page": 1137,
  "\u2581third": 1138,
  "st": 1139,
  "\u2581modo": 1140,
  "\u2581four": 1141,
  "\u2581porque": 1142,
  "\u2581produits": 1143,
  "\u2581moins": 1144,
  "r\u00e9": 1145,
  "\u2581civil": 1146,
  "ad": 1147,
  "\u2581Estado": 1148,
  "\u2581whether": 1149,
  "\u25812006": 1150,
  "\u2581sau": 1151,
  "\u2581role": 1152,
  "tra": 1153,
  "\u2581rules": 1154,
  "\u00e9e": 1155,
  "article": 1156,
  "\u2581enfants": 1157,
  "\u2581established": 1158,
  "\u2581Ele": 1159,
  "\u2581child": 1160,
  "\u2581power": 1161,
  "\u2581organizations": 1162,
  "\u2581until": 1163,
  "\u2581body": 1164,
  "\u2581Et": 1165,
  "\u2581sant\u00e9": 1166,
  "\u2581temps": 1167,
  "\u2581study": 1168,
  "\u2581above": 1169,
  "\u2581femmes": 1170,
  "\u2581Mar": 1171,
  "\u2581*": 1172,
  "\u2581antes": 1173,
  "tte": 1174,
  "\u2581Car": 1175,
  "\u2581personas": 1176,
  "UE": 1177,
  "\u2581concernant": 1178,
  "\u2581provisions": 1179,
  "age": 1180,
  "\u2581effective": 1181,
  "cer": 1182,
  "\u2581programa": 1183,
  "\u2581\u2018": 1184,
  "\u2581risk": 1185,
  "\u2581capital": 1186,
  "nce": 1187,
  "\u2581ed": 1188,
  "\u2581subject": 1189,
  "\u2581World": 1190,
  "\u2581mati\u00e8re": 1191,
  "\u2581otros": 1192,
  "ha": 1193,
  "\u2581requirements": 1194,
  "\u2581city": 1195,
  "\u25812005": 1196,
  "\u2581believe": 1197,
  "\u2581less": 1198,
  "\u2581show": 1199,
  "\u2581left": 1200,
  "\u2581having": 1201,
  "\u2581--": 1202,
  "ist": 1203,
  "\u2581sunt": 1204,
  "\u2581nature": 1205,
  "\u2581Act": 1206,
  "\u2581review": 1207,
  "\u2581Office": 1208,
  "\u2581whole": 1209,
  "\u2581politique": 1210,
  "\u2581result": 1211,
  "\u2581ils": 1212,
  "\u2581sido": 1213,
  "\u2581section": 1214,
  "\u2581police": 1215,
  "U": 1216,
  "\u2581money": 1217,
  "\u2581Sa": 1218,
  "\u2581sure": 1219,
  "\u25812.": 1220,
  "\u2581One": 1221,
  "\u2581demande": 1222,
  "\u2581note": 1223,
  "\u2581considered": 1224,
  "\u2581issue": 1225,
  "\u2581per\u00edodo": 1226,
  "\u2581July": 1227,
  "ada": 1228,
  "\u25812007": 1229,
  "\u2581avait": 1230,
  "\u2581po": 1231,
  "\u2581various": 1232,
  "tura": 1233,
  "\u2581Conference": 1234,
  "\u2581food": 1235,
  "\u2581hand": 1236,
  "\u2581Security": 1237,
  "\u2581Court": 1238,
  "\u2581groups": 1239,
  "\u2581concerned": 1240,
  "\u2581natural": 1241,
  "tor": 1242,
  "\u2581mal": 1243,
  "\u2581partir": 1244,
  "\u2581fazer": 1245,
  "\u25812,": 1246,
  "\u2581experience": 1247,
  "\u2581notamment": 1248,
  "\u2581months": 1249,
  "lu": 1250,
  "\u2581Os": 1251,
  "\u2581Let": 1252,
  "\u2581Human": 1253,
  "\u2581THE": 1254,
  "\u2581times": 1255,
  "\u2581algo": 1256,
  "\u2581niveau": 1257,
  "\u2581March": 1258,
  "\u2581\u2022": 1259,
  "ive": 1260,
  "\u2581Internet": 1261,
  "\u2581energy": 1262,
  "ait": 1263,
  "\u2581gestion": 1264,
  "\u2581upon": 1265,
  "\u2581draft": 1266,
  "\u2581taking": 1267,
  "\u2581current": 1268,
  "\u2581become": 1269,
  "\u2581degli": 1270,
  "\u2581contact": 1271,
  "\u25812004": 1272,
  "\u2581Rights": 1273,
  "\u2581documents": 1274,
  "\u2581<": 1275,
  "\u2581thought": 1276,
  "\u2581Or": 1277,
  "\u00e1n": 1278,
  "tta": 1279,
  "tto": 1280,
  "\u2581sul": 1281,
  "\u2581pelo": 1282,
  "\u2581formation": 1283,
  "\u2581light": 1284,
  "\u2581apr\u00e8s": 1285,
  "\u2581impact": 1286,
  "\u2581problem": 1287,
  "\u25812000": 1288,
  "idad": 1289,
  "\u2581points": 1290,
  "nza": 1291,
  "\u2581trabajo": 1292,
  "\u2581field": 1293,
  "\u2581menos": 1294,
  "\u2581Okay": 1295,
  "ils": 1296,
  "\u2581fois": 1297,
  "\u2581technical": 1298,
  "\u2581deve": 1299,
  "ina": 1300,
  "\u2581keep": 1301,
  "\u2581Como": 1302,
  "\u00e3o": 1303,
  "\u25812008": 1304,
  "\u2581tiempo": 1305,
  "\u2581January": 1306,
  "\u2581took": 1307,
  "\u2581company": 1308,
  "and": 1309,
  "ho": 1310,
  "\u2581private": 1311,
  "\u2581Que": 1312,
  "\u2581Une": 1313,
  "\u2581addition": 1314,
  "\u2581toute": 1315,
  "\u2581Jesus": 1316,
  "\u2581europ\u00e9enne": 1317,
  "\u2581recherche": 1318,
  "\u2581personnel": 1319,
  "\u2581kind": 1320,
  "\u2581etc": 1321,
  "\u2581anything": 1322,
  "ram": 1323,
  "\u2581individual": 1324,
  "\u2581systems": 1325,
  "\u2581Ho": 1326,
  "\u2581fine": 1327,
  "\u2581asta": 1328,
  "\u2581came": 1329,
  "\u2581October": 1330,
  "\u2581treatment": 1331,
  "\u2581projects": 1332,
  "land": 1333,
  "ion": 1334,
  "\u2581Pe": 1335,
  "bi": 1336,
  "\u2581English": 1337,
  "Qu\u00e9": 1338,
  "ntes": 1339,
  "\u2581paragraphe": 1340,
  "\u2581Hey": 1341,
  "\u2581staff": 1342,
  "fe": 1343,
  "\u2581loro": 1344,
  "\u2581\u00e7a": 1345,
  "j": 1346,
  "ty": 1347,
  "\u2581avant": 1348,
  "\u2581violence": 1349,
  "\u2581ever": 1350,
  "\u2581informe": 1351,
  "ire": 1352,
  "\u2581interest": 1353,
  "\u2581lot": 1354,
  "uri": 1355,
  "los": 1356,
  "cha": 1357,
  "\u2581X": 1358,
  "\u2581patients": 1359,
  "\u2581dire": 1360,
  "\u2581material": 1361,
  "6": 1362,
  "\u2581major": 1363,
  "\u2581minutes": 1364,
  "\u2581several": 1365,
  "\u00b0": 1366,
  "nti": 1367,
  "\u2581region": 1368,
  "\u2581capacity": 1369,
  "\u2581air": 1370,
  "\u2581young": 1371,
  "\u2581problems": 1372,
  "\u2581favor": 1373,
  "ban": 1374,
  "\u2581pa\u00eds": 1375,
  "\u2581miembros": 1376,
  "ite": 1377,
  "\u2581000": 1378,
  "\u2581aqu\u00ed": 1379,
  "\u2581value": 1380,
  "tti": 1381,
  "ux": 1382,
  "\u2581nada": 1383,
  "\u2581avoir": 1384,
  "\u2581Ar": 1385,
  "\u2581tamb\u00e9m": 1386,
  "\u2581cause": 1387,
  "\u2581talk": 1388,
  "\u2581hay": 1389,
  "\u2581Not": 1390,
  "\u2581cannot": 1391,
  "\u2581doivent": 1392,
  "\u2581school": 1393,
  "\u2581alle": 1394,
  "\u2581September": 1395,
  "ance": 1396,
  "\u2581importance": 1397,
  "\u2581terms": 1398,
  "\u2581Home": 1399,
  "ven": 1400,
  "\u2581told": 1401,
  "\u2581Em": 1402,
  "ze": 1403,
  "\u2581ir": 1404,
  "\u2581Ci": 1405,
  "\u2581vue": 1406,
  "\u2581Esta": 1407,
  "\u2581cost": 1408,
  "\u2581encore": 1409,
  "pi": 1410,
  "\u2581gran": 1411,
  "\u258160": 1412,
  "\u2581meet": 1413,
  "\u2581g\u00e9n\u00e9rale": 1414,
  "\u2581line": 1415,
  "\u2581autre": 1416,
  "\u2581communication": 1417,
  "\u2581internacional": 1418,
  "it\u00e0": 1419,
  "\u2581momento": 1420,
  "\u2581Special": 1421,
  "\u2581g": 1422,
  "\u2581making": 1423,
  "\u2581address": 1424,
  "\u2581pr\u00e9": 1425,
  "\u2581levels": 1426,
  "\u2581aid": 1427,
  "\u2581Be": 1428,
  "\u2581five": 1429,
  "\u2581November": 1430,
  "\u2581list": 1431,
  "\u2581feel": 1432,
  "\u2581developing": 1433,
  "\u2581price": 1434,
  "\u2581Presidente": 1435,
  "\u2581matter": 1436,
  "\u2581attention": 1437,
  "\u2581idea": 1438,
  "00": 1439,
  "\u2581\u00e9conomique": 1440,
  "\u2581yet": 1441,
  "\u2581design": 1442,
  "\u2581via": 1443,
  "\u2581agreement": 1444,
  "\u2581cet": 1445,
  "\u2581hasta": 1446,
  "\u2581referred": 1447,
  "las": 1448,
  "res": 1449,
  "\u2581program": 1450,
  "\u2581peace": 1451,
  "\u2581$": 1452,
  "\u2581est\u00e1n": 1453,
  "\u2581actividades": 1454,
  "\u2581live": 1455,
  "\u2581Elle": 1456,
  "\u2581amount": 1457,
  "ste": 1458,
  "\u2581Our": 1459,
  "\u2581costs": 1460,
  "X": 1461,
  "aux": 1462,
  "\u00eatre": 1463,
  "\u2581start": 1464,
  "\u2581bi": 1465,
  "\u2581debe": 1466,
  "des": 1467,
  "\u2581bar": 1468,
  "he": 1469,
  "\u2581society": 1470,
  "ka": 1471,
  "dores": 1472,
  "\u2581clear": 1473,
  "\u2581actions": 1474,
  "\u2581servicios": 1475,
  "\u2581progress": 1476,
  "\u2581Ca": 1477,
  "\u2581play": 1478,
  "\u2581politiques": 1479,
  "\u2581Just": 1480,
  "\u2581request": 1481,
  "\u2581environment": 1482,
  "\u2581monde": 1483,
  "\u2581post": 1484,
  "\u2581web": 1485,
  "\u25812002": 1486,
  "\u2581Centre": 1487,
  "net": 1488,
  "\u25812003": 1489,
  "\u2581central": 1490,
  "\u2581ese": 1491,
  "isation": 1492,
  "\u2581Israel": 1493,
  ".1": 1494,
  "\u2581f": 1495,
  "\u2581heart": 1496,
  "\u2581vai": 1497,
  "\u2581Plan": 1498,
  "\u2581received": 1499,
  "\u2581sei": 1500,
  "\u2581concerning": 1501,
  "\u2581six": 1502,
  "\u2581More": 1503,
  "No": 1504,
  "\u2581chaque": 1505,
  "\u2581leave": 1506,
  "\u00e8": 1507,
  "pro": 1508,
  "it\u00e9": 1509,
  "\u2581simple": 1510,
  "\u2581Tribunal": 1511,
  "\u2581media": 1512,
  "\u2581Ta": 1513,
  "\u2581age": 1514,
  "\u2581Africa": 1515,
  "\u2581policies": 1516,
  "\u2581dit": 1517,
  "gen": 1518,
  "\u2581centre": 1519,
  "\u2581ressources": 1520,
  "\u2581+": 1521,
  "eau": 1522,
  "tes": 1523,
  "\u2581everything": 1524,
  "\u2581others": 1525,
  "\u2581April": 1526,
  "der": 1527,
  "\u2581reports": 1528,
  "\u2581mejor": 1529,
  "\u2581framework": 1530,
  "\u2581procedure": 1531,
  "50": 1532,
  "\u2581prima": 1533,
  "\u2581justice": 1534,
  "r\u00eda": 1535,
  "\u25812009": 1536,
  "\u2581proposed": 1537,
  "*": 1538,
  "\u2581Economic": 1539,
  "20": 1540,
  "\u2581Cette": 1541,
  "\u2581please": 1542,
  "\u2581living": 1543,
  "\u2581hours": 1544,
  "\u2581rate": 1545,
  "\u2581Pre": 1546,
  "\u2581chi": 1547,
  "\u2581particularly": 1548,
  "\u2581estar": 1549,
  "\u2581key": 1550,
  "\u2581nothing": 1551,
  "line": 1552,
  "\u2581Dr": 1553,
  "ement": 1554,
  "\u2581Canadian": 1555,
  "\u2581close": 1556,
  "\u2581Who": 1557,
  "\u2581Mo": 1558,
  "\u2581humanos": 1559,
  "\u2581side": 1560,
  "\u2581met": 1561,
  "\u2581Ri": 1562,
  "\u2581included": 1563,
  "cia": 1564,
  "ke": 1565,
  "tos": 1566,
  "\u2581Are": 1567,
  "\u2581organisations": 1568,
  "\u2581principal": 1569,
  "\u25813.": 1570,
  "\u2581test": 1571,
  "\u2581depuis": 1572,
  "\u021bi": 1573,
  "ais": 1574,
  "ins": 1575,
  "\u2581Ex": 1576,
  "\u2581land": 1577,
  "\u2581stay": 1578,
  "d\u00e9": 1579,
  "ista": 1580,
  "In": 1581,
  "\u2581esto": 1582,
  "\u2581industry": 1583,
  "ont": 1584,
  "\u2581h": 1585,
  "\u2581dia": 1586,
  "\u2581auto": 1587,
  "\u2581eso": 1588,
  "\u2581once": 1589,
  "\u2581Li": 1590,
  "\u2581Thank": 1591,
  "ele": 1592,
  "aci\u00f3n": 1593,
  "\u2581developed": 1594,
  "\u2581lieu": 1595,
  "\u2581approach": 1596,
  "\u2581Mais": 1597,
  "\u2581additional": 1598,
  "can": 1599,
  "\u25812001": 1600,
  "\u2581won": 1601,
  "\u2581trois": 1602,
  "\u2581pela": 1603,
  "\u2581especially": 1604,
  "\u2581;": 1605,
  "\u2581Man": 1606,
  "\u2581Treaty": 1607,
  "\u2581cuenta": 1608,
  "\u2581according": 1609,
  "\u2581improve": 1610,
  "im": 1611,
  "par": 1612,
  "\u2581problema": 1613,
  "mar": 1614,
  "\u2581minha": 1615,
  "\u2581Est\u00e1": 1616,
  "\u2581ela": 1617,
  "\u2581Service": 1618,
  "\u2581derecho": 1619,
  "\u2581loi": 1620,
  "\u2581Parties": 1621,
  "\u2581Then": 1622,
  "jo": 1623,
  "\u2581aplicaci\u00f3n": 1624,
  "\u2581vers": 1625,
  "ces": 1626,
  "\u2581Board": 1627,
  "\u2581Bo": 1628,
  "\u2581suis": 1629,
  "\u25812010": 1630,
  "\u2581big": 1631,
  "tive": 1632,
  "\u2581however": 1633,
  "\u2581proposal": 1634,
  "\u2581mesmo": 1635,
  "\u2581Commissione": 1636,
  "\u2581provides": 1637,
  "\u2581d\u00e9cision": 1638,
  "\u2581pot": 1639,
  "\u00e9es": 1640,
  "\u2581dollars": 1641,
  "ac": 1642,
  "\u2581safety": 1643,
  "ber": 1644,
  "\u2581ro": 1645,
  "ster": 1646,
  "era": 1647,
  "\u2581often": 1648,
  "tions": 1649,
  "\u2581s\u00e9": 1650,
  "\u2581r\u00e8glement": 1651,
  "tiva": 1652,
  "\u2581uso": 1653,
  "\u2581understand": 1654,
  "\u2581St": 1655,
  "\u2581single": 1656,
  "\u2581pueden": 1657,
  "10": 1658,
  "\u2581performance": 1659,
  "\u2581legislation": 1660,
  "\u2581tal": 1661,
  "\u2581By": 1662,
  "\u2581Annex": 1663,
  "\u2581China": 1664,
  "\u2581seen": 1665,
  "\u2581fe": 1666,
  "\u2581Sr": 1667,
  "\u25812011": 1668,
  "\u2581software": 1669,
  "\u2581member": 1670,
  "\u2581processus": 1671,
  "\u2581Christ": 1672,
  "\u2581internationale": 1673,
  "\u2581known": 1674,
  "\u2581effect": 1675,
  "\u2581direct": 1676,
  "\u2581Bar": 1677,
  "\u2581extra": 1678,
  "AL": 1679,
  "\u2581bring": 1680,
  "\u2581gouvernement": 1681,
  "\u2581otras": 1682,
  "\u2581dalla": 1683,
  "\u2581towards": 1684,
  "\u2581stato": 1685,
  "\u2581UN": 1686,
  "\u2581ask": 1687,
  "ting": 1688,
  "90": 1689,
  "tivo": 1690,
  "ya": 1691,
  "\u2581later": 1692,
  "\u2581ago": 1693,
  "\u2581York": 1694,
  "\u2581#": 1695,
  "\u2581mar": 1696,
  "nes": 1697,
  "\u2581tutti": 1698,
  "\u2581environmental": 1699,
  "0": 1700,
  "\u2581context": 1701,
  "\u2581pol\u00edtica": 1702,
  "\u2581After": 1703,
  "\u2581n\u00famero": 1704,
  "\u2581French": 1705,
  "\u2581\u00cen": 1706,
  "\u2581quanto": 1707,
  "\u2581growth": 1708,
  "\u2581February": 1709,
  "\u2581toda": 1710,
  "La": 1711,
  "\u2581offer": 1712,
  "\u2581mission": 1713,
  "\u2581trans": 1714,
  "\u2581mind": 1715,
  "\u2581job": 1716,
  "\u2581knowledge": 1717,
  "\u2581Ver": 1718,
  "\u2581Du": 1719,
  "\u2581low": 1720,
  "\u2581cultural": 1721,
  "tori": 1722,
  "\u2581Pero": 1723,
  "\u2581head": 1724,
  "ana": 1725,
  "ici": 1726,
  "\u2581opinion": 1727,
  "\u2581cosa": 1728,
  "\u2581vos": 1729,
  "tic": 1730,
  "\u2581equipment": 1731,
  "mer": 1732,
  "):": 1733,
  "\u2581apply": 1734,
  "\u2581donc": 1735,
  "\u00c3": 1736,
  "AC": 1737,
  "\u2581OF": 1738,
  "\u2581Information": 1739,
  "\u2581sempre": 1740,
  "min": 1741,
  "\u2581Parlamento": 1742,
  "\u2581death": 1743,
  "ato": 1744,
  "\u2581mine": 1745,
  "sta": 1746,
  "40": 1747,
  "\u2581ser\u00e1": 1748,
  "\u2581Please": 1749,
  "\u2581ni\u00f1os": 1750,
  "\u2581His": 1751,
  "information": 1752,
  "\u2581coming": 1753,
  "\u2581seguridad": 1754,
  "\u2581content": 1755,
  "\u2581offers": 1756,
  "\u2581r\u00e9solution": 1757,
  "\u2581\u00e9l": 1758,
  "\u2581hab\u00eda": 1759,
  "\u2581Dios": 1760,
  "\u2581table": 1761,
  "\u2581pay": 1762,
  "\u2581Ro": 1763,
  "\u2581march\u00e9": 1764,
  "\u2581team": 1765,
  "\u2581South": 1766,
  "\u2581office": 1767,
  "\u2581examen": 1768,
  "\u2581active": 1769,
  "\u2581okay": 1770,
  "nd": 1771,
  ".2": 1772,
  "\u2581s\u00f3": 1773,
  "\u2581went": 1774,
  "\u2581selon": 1775,
  "\u2581standard": 1776,
  "\u25812015": 1777,
  "\u2581tant": 1778,
  "\u2581Health": 1779,
  "rie": 1780,
  "\u2581changes": 1781,
  "\u2581jusqu": 1782,
  "ler": 1783,
  "\u2581similar": 1784,
  "ente": 1785,
  "\u2581enough": 1786,
  "ism": 1787,
  "\u2581pendant": 1788,
  "30": 1789,
  "\u2581coop\u00e9ration": 1790,
  "\u2581past": 1791,
  "--": 1792,
  "\u25812012": 1793,
  "mp": 1794,
  "\u2581h\u00e1": 1795,
  "\u2581Good": 1796,
  "nu": 1797,
  "19": 1798,
  "\u2581original": 1799,
  "\u2581version": 1800,
  "\u2581Ti": 1801,
  "\u25812013": 1802,
  "tri": 1803,
  "azione": 1804,
  "\u2581game": 1805,
  "\u2581aos": 1806,
  "\u2581increased": 1807,
  "\u2581Services": 1808,
  "\u25813,": 1809,
  "\u2581mismo": 1810,
  "\u2581involved": 1811,
  "\u2581Ces": 1812,
  "ados": 1813,
  "art": 1814,
  "\u2581building": 1815,
  "\u2581companies": 1816,
  "\u2581nuclear": 1817,
  "rio": 1818,
  "\u2014": 1819,
  "\u2581plans": 1820,
  "\u2581secteur": 1821,
  "\u2581groupe": 1822,
  "ness": 1823,
  "\u2581construction": 1824,
  "\u2581hanno": 1825,
  "5": 1826,
  "tica": 1827,
  "\u2581sulla": 1828,
  "\u2581technology": 1829,
  "\u2581top": 1830,
  "\u2581solution": 1831,
  "\u2581doesn": 1832,
  "\u2581III": 1833,
  "\u2581wanted": 1834,
  ",\"": 1835,
  "vis": 1836,
  "\u2581pr\u00e9sent": 1837,
  "tas": 1838,
  "\u2581compris": 1839,
  "\u25812016": 1840,
  "ino": 1841,
  "\u2581suo": 1842,
  "\u2581p\u00e9riode": 1843,
  "\u2581looking": 1844,
  "\u2581either": 1845,
  "\u2581recursos": 1846,
  "\u2581Cu": 1847,
  "bra": 1848,
  "\u2581responsible": 1849,
  "\u2581location": 1850,
  "7": 1851,
  "\u2581located": 1852,
  "\u2581coordination": 1853,
  "\u2581s\u00f3lo": 1854,
  "den": 1855,
  "gar": 1856,
  "\u2581comment": 1857,
  "\u2581America": 1858,
  "\u2581ve": 1859,
  "\u2581text": 1860,
  "\u2581questa": 1861,
  "\u2581TV": 1862,
  "\u2581promotion": 1863,
  "\u2581fa\u00e7on": 1864,
  "eux": 1865,
  "\u2581sou": 1866,
  "\u2581Look": 1867,
  "gu": 1868,
  "ita": 1869,
  "\u2581instruments": 1870,
  "\u2581Paris": 1871,
  "\u2581nivel": 1872,
  "gna": 1873,
  "\u2581anos": 1874,
  "8": 1875,
  "\u2581prendre": 1876,
  "\u2581x": 1877,
  "\u2581significant": 1878,
  "\u2581r\u00e9sultats": 1879,
  "\u2581discrimination": 1880,
  "\u2581nouveau": 1881,
  "\u2581employment": 1882,
  "\u2581gas": 1883,
  "\u2581relations": 1884,
  "\u2581proyecto": 1885,
  "\u2581qualit\u00e9": 1886,
  "\u2581informations": 1887,
  "op": 1888,
  "\u2581analysis": 1889,
  "\u2581li": 1890,
  "ko": 1891,
  "\u2581structure": 1892,
  "\u2581agenda": 1893,
  "\u2581programas": 1894,
  "\u2581disse": 1895,
  "\u2581mois": 1896,
  "\u2581hecho": 1897,
  "Z": 1898,
  "\u00ea": 1899,
  "\u25812014": 1900,
  "\u2581words": 1901,
  "\u2581From": 1902,
  "\u2581EUR": 1903,
  "\u2581tudo": 1904,
  "\u2581normal": 1905,
  "\u2581yo": 1906,
  "\u2581Code": 1907,
  "\u2581Sin": 1908,
  "\u2581punto": 1909,
  "ix": 1910,
  "\u2581sem": 1911,
  "ii": 1912,
  "\u2581Ra": 1913,
  "\u2581materia": 1914,
  "\u2581millions": 1915,
  "\u2581procedures": 1916,
  "\u2581Comiss\u00e3o": 1917,
  "\u2581sta": 1918,
  "\u2581plusieurs": 1919,
  "\u2581mesure": 1920,
  "\u2581radio": 1921,
  "\u2581ann\u00e9es": 1922,
  "\u2581titre": 1923,
  "\u2581initiatives": 1924,
  "\u2581standards": 1925,
  "\u2581charge": 1926,
  "\u2581sol": 1927,
  "\u2581r": 1928,
  "\u2581hope": 1929,
  "\u2581See": 1930,
  "\u2581space": 1931,
  "zo": 1932,
  "\u2581personne": 1933,
  "\u2581submitted": 1934,
  "\u2581articles": 1935,
  "\u2581obligations": 1936,
  "\u2581particulier": 1937,
  "\u2581US": 1938,
  "\u2581produit": 1939,
  "\u2581pu\u00f2": 1940,
  "\u2581premi\u00e8re": 1941,
  "\u2581Contact": 1942,
  "\u2581purpose": 1943,
  "\u2581Chi": 1944,
  "\u2581mayor": 1945,
  "\u2581esa": 1946,
  "\u2581ceux": 1947,
  "\u2581follow": 1948,
  "\u2581true": 1949,
  "\u2581existing": 1950,
  "\u2581below": 1951,
  "gra": 1952,
  "\u2581Europa": 1953,
  "\u2581carried": 1954,
  "\u2581types": 1955,
  "ard": 1956,
  "\u2581Web": 1957,
  "one": 1958,
  "60": 1959,
  "\u2581ahora": 1960,
  "\u2581sia": 1961,
  "\u2581d\u00eda": 1962,
  "\u2581John": 1963,
  "\u2581debate": 1964,
  "\u2581Here": 1965,
  "\u2581needed": 1966,
  "ff": 1967,
  "\u2581makes": 1968,
  "\u2581seus": 1969,
  "ile": 1970,
  "\u25814.": 1971,
  "\u2581effects": 1972,
  "\u2581\u266a": 1973,
  "\u2581premier": 1974,
  "\u2581respecto": 1975,
  "\u2581language": 1976,
  "\u2581cor": 1977,
  "\u2581a\u00f1o": 1978,
  "\u2581contribution": 1979,
  "dia": 1980,
  "\u2581Agreement": 1981,
  "\u2581red": 1982,
  "vous": 1983,
  "\u2581court": 1984,
  "ian": 1985,
  "\u2581week": 1986,
  "\u2581\u0153uvre": 1987,
  "\u2581Z": 1988,
  "\u2581fully": 1989,
  "\u2581Some": 1990,
  "\u2581multi": 1991,
  "for": 1992,
  "\u2581applicable": 1993,
  "\u2581promote": 1994,
  "\u2581Other": 1995,
  "25": 1996,
  "\u2581Ba": 1997,
  "id": 1998,
  "\u2581nas": 1999,
  "\u2581Che": 2000,
  "\u2581nacional": 2001,
  "\u2581aspects": 2002,
  "\u2581range": 2003,
  "\u2581culture": 2004,
  "\u2581grand": 2005,
  "\u2581recommendations": 2006,
  "\u2581)": 2007,
  "80": 2008,
  "\u2581Decision": 2009,
  "\u2581nom": 2010,
  "\u2581war": 2011,
  "\u2581Ad": 2012,
  "\u2581resoluci\u00f3n": 2013,
  "\u2581early": 2014,
  "\u2581father": 2015,
  "ling": 2016,
  "\u2581Q": 2017,
  "ES": 2018,
  "\u2581vote": 2019,
  "encia": 2020,
  "\u2581workers": 2021,
  "\u2581short": 2022,
  "\u2581causa": 2023,
  "\u2581Groupe": 2024,
  "\u2581mm": 2025,
  "ante": 2026,
  "\u2581video": 2027,
  "via": 2028,
  "\u2581stop": 2029,
  "hi": 2030,
  "ence": 2031,
  "\u2581certains": 2032,
  "\u2581says": 2033,
  "\u2581mettre": 2034,
  "ale": 2035,
  "\u2581devrait": 2036,
  "\u2581homme": 2037,
  "\u2581model": 2038,
  "\u2581August": 2039,
  "\u2581Minister": 2040,
  "\u2581property": 2041,
  "a\u00e7\u00e3o": 2042,
  "tar": 2043,
  "\u2581dialogue": 2044,
  "\u2581activity": 2045,
  "\u2581Add": 2046,
  "Union": 2047,
  "\u2581bodies": 2048,
  "ol": 2049,
  "\u2581suite": 2050,
  "\u2581try": 2051,
  "\u2581read": 2052,
  "\u2581v": 2053,
  "\u2581savoir": 2054,
  "\u2581potential": 2055,
  "Re": 2056,
  "\u2581hear": 2057,
  "\u00f4": 2058,
  "\u2581goods": 2059,
  "\u2581Una": 2060,
  "\u2581assessment": 2061,
  "\u2581dentro": 2062,
  "\u2581bine": 2063,
  "\u2581Fa": 2064,
  "zza": 2065,
  "\u2581forces": 2066,
  "ary": 2067,
  "\u2581Free": 2068,
  "\u2581unique": 2069,
  "\u2581source": 2070,
  "\u2581prix": 2071,
  "ture": 2072,
  "fo": 2073,
  "\u2581authority": 2074,
  "\u2581hard": 2075,
  "\u258135": 2076,
  "\u2581practice": 2077,
  "\u2581dispositions": 2078,
  "\u2581mujeres": 2079,
  "\u2581peu": 2080,
  "vol": 2081,
  "\u2581mani\u00e8re": 2082,
  "\u2581bo": 2083,
  "\u2581trabalho": 2084,
  "gue": 2085,
  "see": 2086,
  "\u2581Cor": 2087,
  "\u2581at\u00e9": 2088,
  "\u2581fundamental": 2089,
  "\u2581share": 2090,
  "\u2581asked": 2091,
  "aient": 2092,
  "fer": 2093,
  "\u2581domaine": 2094,
  "\u2581projets": 2095,
  "\u2581greater": 2096,
  "\u2581mercado": 2097,
  "\u2581exemple": 2098,
  "\u2581reason": 2099,
  "\u2581operations": 2100,
  "\u2581wrong": 2101,
  "\u2581blood": 2102,
  "\u2581parents": 2103,
  "\u2581allow": 2104,
  "\u2581entreprises": 2105,
  "\u2581toujours": 2106,
  "\u2581directly": 2107,
  "\u2581higher": 2108,
  ".5": 2109,
  "\u2581nome": 2110,
  "\u2581mother": 2111,
  "\u2581grandes": 2112,
  "\u258190": 2113,
  "\u2581relating": 2114,
  "\u2581actual": 2115,
  "\u2581event": 2116,
  "ando": 2117,
  "\u2581Fi": 2118,
  "\u2581soci\u00e9t\u00e9": 2119,
  "\u2581condition": 2120,
  "\u2581relative": 2121,
  "ise": 2122,
  "\u2581First": 2123,
  "\u2581Bureau": 2124,
  "ger": 2125,
  "\u2581providing": 2126,
  "\u2581outside": 2127,
  "\u2581events": 2128,
  "\u25811999": 2129,
  "\u2581happened": 2130,
  "\u2581l\u00e1": 2131,
  "\u2581nell": 2132,
  "ated": 2133,
  "\u2581Um": 2134,
  "\u2581works": 2135,
  "\u2581participants": 2136,
  "\u2581pu": 2137,
  "\u2581mg": 2138,
  "\u2581paz": 2139,
  "\u2581American": 2140,
  "EN": 2141,
  "\u2581turn": 2142,
  "\u2581decided": 2143,
  "sion": 2144,
  "\u2581lors": 2145,
  "nia": 2146,
  "\u2581tener": 2147,
  "\u2581Pr\u00e9sident": 2148,
  "\u2581sociale": 2149,
  "\u2581guy": 2150,
  "\u2581jours": 2151,
  "\u2581Gobierno": 2152,
  "\u2581pr\u00e9sente": 2153,
  "\u2581\u00e9taient": 2154,
  "\u2581reference": 2155,
  "\u2581j\u00e1": 2156,
  "\u2581Tra": 2157,
  "\u2581fra": 2158,
  "\u2581regarding": 2159,
  "\u2581develop": 2160,
  "\u2581consider": 2161,
  "\u2581Report": 2162,
  "\u2581meetings": 2163,
  "\u2581along": 2164,
  "ncia": 2165,
  "\u2581soon": 2166,
  "\u2581manera": 2167,
  "men": 2168,
  "\u2581apoyo": 2169,
  "\u2581dizer": 2170,
  "\u2581wish": 2171,
  "\u2581nouvelle": 2172,
  "\u2581Qu": 2173,
  "\u2581acuerdo": 2174,
  "\u2581conform\u00e9ment": 2175,
  "\u2581crisis": 2176,
  "\u2581someone": 2177,
  "\u2581Central": 2178,
  "\u2581recent": 2179,
  "\u2581Lord": 2180,
  "\u2581itself": 2181,
  "\u2581Inter": 2182,
  "\u2581military": 2183,
  "\u2581agora": 2184,
  "\u2581status": 2185,
  "\u2581Dar": 2186,
  "\u2581investment": 2187,
  "ts": 2188,
  "\u2581europea": 2189,
  "\u2581d\u00e9j\u00e0": 2190,
  "EEC": 2191,
  "\u2581noi": 2192,
  "cri": 2193,
  "\u2581directive": 2194,
  "por": 2195,
  "\u2581return": 2196,
  "CEE": 2197,
  "\u2581administrative": 2198,
  "\u2581d\u00e9cembre": 2199,
  "\u2581create": 2200,
  "De": 2201,
  "\u2581bon": 2202,
  "\u2581friend": 2203,
  "\u2581Wi": 2204,
  "\u2581code": 2205,
  "\u25812018": 2206,
  "\u2581UE": 2207,
  "\u2581tax": 2208,
  "\u2581membre": 2209,
  "\u258145": 2210,
  ".4": 2211,
  "\u2581hace": 2212,
  "\u2581Italy": 2213,
  "000": 2214,
  "\u2581concerne": 2215,
  "\u2581Department": 2216,
  "\u2581responsibility": 2217,
  "\u2581self": 2218,
  "\u2581serious": 2219,
  "\u2581trying": 2220,
  "\u2581r\u00f4le": 2221,
  "\u2581contr\u00f4le": 2222,
  "\u2581ici": 2223,
  "\u2581saw": 2224,
  "\u2581half": 2225,
  "lla": 2226,
  "\u2581tutto": 2227,
  "\u2581avons": 2228,
  "mail": 2229,
  "\u2581Bien": 2230,
  "\u2581film": 2231,
  "stra": 2232,
  "ut": 2233,
  "\u2581Mon": 2234,
  "\u2581minimum": 2235,
  "rse": 2236,
  "\u258180": 2237,
  "\u2581positive": 2238,
  "\u2581Stati": 2239,
  "\u2581evidence": 2240,
  "\u2581bio": 2241,
  "\u2581Dis": 2242,
  "\u2581maximum": 2243,
  "\u2581studies": 2244,
  "l\u00e9": 2245,
  "\u2581brought": 2246,
  "\u2581Saint": 2247,
  ".3": 2248,
  "\u2581industrial": 2249,
  "\u00a9": 2250,
  "\u2581book": 2251,
  "\u2581grupo": 2252,
  "ros": 2253,
  "\u2581zone": 2254,
  "\u2581aici": 2255,
  "\u2581persona": 2256,
  "\u2581sources": 2257,
  "\u2581High": 2258,
  "\u2581tan": 2259,
  "\u2581average": 2260,
  "\u2581response": 2261,
  "\u2581bad": 2262,
  "\u2581est\u00e3o": 2263,
  "\u2581contributions": 2264,
  "\u2581nunca": 2265,
  "%": 2266,
  "\u2581prices": 2267,
  "\u2581Get": 2268,
  "\u2581woman": 2269,
  "cho": 2270,
  "\u2581history": 2271,
  "\u2581criminal": 2272,
  "\u2581foram": 2273,
  "\u2581move": 2274,
  "\u2581objectives": 2275,
  "\u2581micro": 2276,
  "\u2581mediante": 2277,
  "\u2581double": 2278,
  "\u2581sent": 2279,
  "\u2581thus": 2280,
  "\u2581centro": 2281,
  "\u2581heard": 2282,
  "70": 2283,
  "\u2581else": 2284,
  "\u2581Ils": 2285,
  "\u2581tri": 2286,
  "\u2581organization": 2287,
  "\u2581pa": 2288,
  "ct": 2289,
  "\u2581relaci\u00f3n": 2290,
  "\u2581complete": 2291,
  "\u2581u": 2292,
  "use": 2293,
  "\u2581problemas": 2294,
  "\u2581paix": 2295,
  "term": 2296,
  "\u2581monitoring": 2297,
  "\u2581\u00c9tat": 2298,
  "\u2581provision": 2299,
  "qua": 2300,
  "\u2581cela": 2301,
  "\u2581decisions": 2302,
  "\u2581Of": 2303,
  "\u2581moi": 2304,
  "\u2581administration": 2305,
  "\u2581despu\u00e9s": 2306,
  "\u2581assim": 2307,
  "\u2581longer": 2308,
  "\u2581lead": 2309,
  "\u2581molto": 2310,
  "\u25812017": 2311,
  "\u2581sale": 2312,
  "\u2581actually": 2313,
  "\u2581technologies": 2314,
  "\u2581Because": 2315,
  "\u2581nuevo": 2316,
  "\u2581agreed": 2317,
  "\u2581sexual": 2318,
  "dio": 2319,
  "\u2581Son": 2320,
  "\u2581Deus": 2321,
  "\u2581vol": 2322,
  "\u2581themselves": 2323,
  "\u00e2": 2324,
  "\u2581crime": 2325,
  "\u2581super": 2326,
  "\u2581run": 2327,
  "\u2581saber": 2328,
  "\u2581faut": 2329,
  "\u2581presented": 2330,
  "\u2581front": 2331,
  "\u2581dois": 2332,
  "tore": 2333,
  "\u2581direction": 2334,
  "ismo": 2335,
  "ley": 2336,
  "\u2581forme": 2337,
  "\u2581conta": 2338,
  "\u2581art": 2339,
  "\u2581basic": 2340,
  "\u2581seulement": 2341,
  "rsi": 2342,
  "\u2581getting": 2343,
  "\u2581sustainable": 2344,
  "\u2581estas": 2345,
  "we": 2346,
  "\u2581principles": 2347,
  "\u2581Director": 2348,
  "\u2581Mission": 2349,
  "c\u0103": 2350,
  "\u2581situaci\u00f3n": 2351,
  "iste": 2352,
  "\u2581seront": 2353,
  "idade": 2354,
  "\u2581taux": 2355,
  "\u2581decir": 2356,
  "\u2581created": 2357,
  "\u2581reported": 2358,
  "\u2581official": 2359,
  "\u2581receive": 2360,
  "\u2581cal": 2361,
  "\u258132": 2362,
  "Q": 2363,
  "\u2581strategy": 2364,
  "\u2581distribution": 2365,
  "\u2581volta": 2366,
  "ju": 2367,
  "\u2581estos": 2368,
  "\u2581act": 2369,
  "\u2581item": 2370,
  "\u2581r\u00e9gion": 2371,
  "\u2581ante": 2372,
  "\u2581message": 2373,
  "\u2581europ\u00e9en": 2374,
  "\u2581200": 2375,
  "\u2581estava": 2376,
  "\u2581fatto": 2377,
  "\u2581Secr\u00e9taire": 2378,
  "\u2581Fund": 2379,
  "\u2581im": 2380,
  "35": 2381,
  "\u2581beautiful": 2382,
  "\u2581ru": 2383,
  "\u2581added": 2384,
  "\u2581deal": 2385,
  "\u2581nouvelles": 2386,
  "\u2581medio": 2387,
  "\u2581sesiones": 2388,
  "\u2581adoption": 2389,
  "gan": 2390,
  "\u2581casos": 2391,
  "\u2581rather": 2392,
  "\u2581color": 2393,
  "\u2581m\u0103": 2394,
  "\u2581datos": 2395,
  "\u2581experts": 2396,
  "\u2581comes": 2397,
  "\u2581website": 2398,
  "\u2581otra": 2399,
  "\u2581estado": 2400,
  "\u2581resultados": 2401,
  "\u2581rest": 2402,
  "\u2581poder": 2403,
  "\u2581Ka": 2404,
  "\u2581tres": 2405,
  "\u2581girl": 2406,
  "ible": 2407,
  "\u2581donde": 2408,
  "rd": 2409,
  "ang": 2410,
  "\u2581noted": 2411,
  "\u2581designed": 2412,
  "\u2581foreign": 2413,
  "\u2581regular": 2414,
  "\u2581ellos": 2415,
  "\u2581visit": 2416,
  "\u2581consideration": 2417,
  "\u2581strong": 2418,
  "\u2581guys": 2419,
  "14": 2420,
  "\u2581opportunity": 2421,
  "\u2581otro": 2422,
  "\u2581vista": 2423,
  "\u2581transfer": 2424,
  "ano": 2425,
  "\u2581reduce": 2426,
  "\u2581pi": 2427,
  "11": 2428,
  "ati": 2429,
  "\u2581chez": 2430,
  "\u2581trebuie": 2431,
  "sti": 2432,
  "ki": 2433,
  "EU": 2434,
  "\u2581whose": 2435,
  "\u2581Action": 2436,
  "\u2581Sur": 2437,
  "\u2581alors": 2438,
  "van": 2439,
  "\u2581=": 2440,
  "\u2581techniques": 2441,
  "\u2581euro": 2442,
  "\u2581word": 2443,
  "\u2581commercial": 2444,
  "ud": 2445,
  "\u2581friends": 2446,
  "\u2581anni": 2447,
  "\u25811996": 2448,
  "\u2581besoin": 2449,
  "\u2581lista": 2450,
  "\u2581proceso": 2451,
  "\u00c9": 2452,
  "ies": 2453,
  "\u2581esse": 2454,
  "pre": 2455,
  "\u2581saying": 2456,
  "\u2581fare": 2457,
  "\u2581Grupo": 2458,
  "\u2581travaux": 2459,
  "ica": 2460,
  "\u2581Organization": 2461,
  "\u2581essential": 2462,
  "\u2581tienen": 2463,
  "\u2581easy": 2464,
  "\u258170": 2465,
  "cos": 2466,
  "\u2581remember": 2467,
  "\u2581(1)": 2468,
  "ure": 2469,
  "\u2581relatives": 2470,
  "\u2581membri": 2471,
  "\u2581objectifs": 2472,
  "\u2581term": 2473,
  "sh": 2474,
  "\u2581joint": 2475,
  "18": 2476,
  "15": 2477,
  "\u2581usted": 2478,
  "\u2581internal": 2479,
  "ran": 2480,
  "\u2581embargo": 2481,
  "\u2581valor": 2482,
  "\u2581voi": 2483,
  "endo": 2484,
  "\u2581juin": 2485,
  "\u25814,": 2486,
  "\u2581benefits": 2487,
  "\u2581trata": 2488,
  "\u2581effet": 2489,
  "\u2581talking": 2490,
  "amento": 2491,
  "\u25815.": 2492,
  "\u2581ligne": 2493,
  "\u2581medical": 2494,
  "\u2581network": 2495,
  "\u2581especial": 2496,
  "\u2581Hi": 2497,
  "\u2581Bank": 2498,
  "\u2581forward": 2499,
  "ida": 2500,
  "\u2581mondiale": 2501,
  "sol": 2502,
  "su": 2503,
  "\u2581gente": 2504,
  "\u2581avez": 2505,
  "\u2581regions": 2506,
  "tico": 2507,
  "\u2581cum": 2508,
  "\u2581existe": 2509,
  "12": 2510,
  "teur": 2511,
  "\u2581Pi": 2512,
  "\u2581parti": 2513,
  "\u2581associated": 2514,
  "\u2581town": 2515,
  "\u2581African": 2516,
  "\u2581morning": 2517,
  "gli": 2518,
  "tal": 2519,
  "95": 2520,
  "\u2581sorry": 2521,
  "\u2581almost": 2522,
  "Le": 2523,
  "\u2581dice": 2524,
  "\u2581Did": 2525,
  "\u2581l\u00e0": 2526,
  "\u2581dead": 2527,
  "\u2581empresas": 2528,
  "\u2581pessoas": 2529,
  "rs": 2530,
  "\u2581previous": 2531,
  "\u2581sites": 2532,
  "US": 2533,
  "\u2581fu": 2534,
  "\u2581mo": 2535,
  "\u2581celui": 2536,
  "\u2581Po": 2537,
  "\u2581annual": 2538,
  "\u2581ejemplo": 2539,
  "\u25811998": 2540,
  "\u2581chance": 2541,
  "ini": 2542,
  "\u2581across": 2543,
  "\u2581funds": 2544,
  "ei": 2545,
  "\u2581relation": 2546,
  "\u2581concern": 2547,
  "\u2581Since": 2548,
  "\u2581yourself": 2549,
  "bre": 2550,
  "\u2581Jo": 2551,
  "\u2581currently": 2552,
  "m\u00e9": 2553,
  "\u2581Yo": 2554,
  "\u2581limited": 2555,
  "\u2581melhor": 2556,
  "\u2581Mac": 2557,
  "ous": 2558,
  "q": 2559,
  "\u2581k": 2560,
  "\u2581statement": 2561,
  "\u2581mer": 2562,
  "\u2581sabe": 2563,
  "\u2581Public": 2564,
  "\u2581ayant": 2565,
  "\u2581pris": 2566,
  "org": 2567,
  "cre": 2568,
  "\u2581vin": 2569,
  "\u2581During": 2570,
  "\u2581tras": 2571,
  "\u2581principle": 2572,
  "\u2581Asamblea": 2573,
  "\u2581benefit": 2574,
  "\u2581Law": 2575,
  "\u00e7a": 2576,
  "\u2581Rep\u00fablica": 2577,
  "\u2581cualquier": 2578,
  "\u2581elles": 2579,
  "\u2581takes": 2580,
  "out": 2581,
  "\u2581materials": 2582,
  "tre": 2583,
  "\u2581voir": 2584,
  "\u2581Bi": 2585,
  "\u2581games": 2586,
  "01": 2587,
  "\u2581near": 2588,
  "\u2581renseignements": 2589,
  "\u2581pan": 2590,
  "\u2581representatives": 2591,
  "lin": 2592,
  "\u2581practices": 2593,
  "\u2581Her": 2594,
  "pt": 2595,
  "izaci\u00f3n": 2596,
  "\u2581Ben": 2597,
  "\u2581rates": 2598,
  "\u2581Paul": 2599,
  "\u2581lack": 2600,
  "\u2581difficult": 2601,
  "\u2581volume": 2602,
  "ji": 2603,
  "\u2581ob": 2604,
  "21": 2605,
  "\u2581gave": 2606,
  "\u2581Ya": 2607,
  "16": 2608,
  "\u2581Working": 2609,
  "\u2581cm": 2610,
  "ating": 2611,
  "\u2581D\u00e9": 2612,
  "\u2581Kingdom": 2613,
  "eu": 2614,
  "\u2581collaboration": 2615,
  "\u2581Ent\u00e3o": 2616,
  "\u2581fo": 2617,
  "\u2581train": 2618,
  "\u2581nuestro": 2619,
  "\u2581City": 2620,
  "IT": 2621,
  "\u2581size": 2622,
  "\u2581doctor": 2623,
  "by": 2624,
  "\u2581Uni\u00f3n": 2625,
  "\u2581ainda": 2626,
  "\u2581rooms": 2627,
  "\u2581exchange": 2628,
  "\u2581approved": 2629,
  "\u2581vou": 2630,
  "\u2581Total": 2631,
  "ru": 2632,
  "\u2581Ni": 2633,
  "\u2581operation": 2634,
  "24": 2635,
  "\u2581technique": 2636,
  "\u2581alone": 2637,
  "\u2581mucho": 2638,
  "\u2581n\u00f3s": 2639,
  "\u2581coisa": 2640,
  "13": 2641,
  "stre": 2642,
  "\u2581pol\u00edticas": 2643,
  "\u2581nei": 2644,
  "\u2581though": 2645,
  "\u2581haya": 2646,
  "\u2581details": 2647,
  "\u2581estou": 2648,
  "\u2581mu": 2649,
  "\u2581gender": 2650,
  "\u2581Affairs": 2651,
  "\u2581applications": 2652,
  "\u2581sujet": 2653,
  "\u2581Air": 2654,
  "\u2581prevent": 2655,
  "\u2581organizaciones": 2656,
  "ido": 2657,
  "\u2581purposes": 2658,
  "\u2581eles": 2659,
  "\u2581fonction": 2660,
  "\u2581expected": 2661,
  "\u2581Germany": 2662,
  "\u2581\u0301": 2663,
  "\u258133": 2664,
  "\u2581R\u00e9publique": 2665,
  "\u25811995": 2666,
  "DE": 2667,
  "\u2581forms": 2668,
  "\u2581col": 2669,
  "\u2581laquelle": 2670,
  "eur": 2671,
  "ras": 2672,
  "if": 2673,
  "\u2581alta": 2674,
  "\u2581parts": 2675,
  "\u2581Consiglio": 2676,
  "\u2581road": 2677,
  "\u2581establishment": 2678,
  "\u2581agencies": 2679,
  "\u2581solutions": 2680,
  "ssi": 2681,
  "\u2581conflict": 2682,
  "r\u00e0": 2683,
  "\u2581paid": 2684,
  "port": 2685,
  "\u2581rural": 2686,
  "\u2581beaucoup": 2687,
  "ns": 2688,
  "\u2581Ela": 2689,
  "\u2581initiative": 2690,
  "\u2581partes": 2691,
  "\u2581probl\u00e8mes": 2692,
  "\u2581groupes": 2693,
  "+": 2694,
  "\u2581objective": 2695,
  "\u2581soient": 2696,
  "\u2581Europea": 2697,
  "ung": 2698,
  "\u2581month": 2699,
  "$": 2700,
  "\u2581liste": 2701,
  "\u2581Internacional": 2702,
  "\u2581citizens": 2703,
  "\u2581ann\u00e9e": 2704,
  "\u2581LA": 2705,
  "\u2581raison": 2706,
  "ization": 2707,
  "\u2581mim": 2708,
  "\u2581ready": 2709,
  "\u2581search": 2710,
  "\u2581white": 2711,
  "\u2581productos": 2712,
  "\u2581Women": 2713,
  "\u2581focus": 2714,
  "\u2581sir": 2715,
  "iv": 2716,
  "ero": 2717,
  "\u2581nationale": 2718,
  "\u2581House": 2719,
  "\u2581onde": 2720,
  "\u2581ton": 2721,
  "\u2581applied": 2722,
  "aide": 2723,
  "\u2581Windows": 2724,
  "\u2581lavoro": 2725,
  "\u2581published": 2726,
  "\u2581collection": 2727,
  "\u2581Section": 2728,
  "\u2581dose": 2729,
  "\u2581students": 2730,
  "\u2581discussion": 2731,
  "\u2581horas": 2732,
  "\u2581started": 2733,
  "\u2581includes": 2734,
  "\u2581fun": 2735,
  "\u2581libre": 2736,
  "\u2581competition": 2737,
  "\u2581protecci\u00f3n": 2738,
  "\u2581fer": 2739,
  "\u2581check": 2740,
  "rait": 2741,
  "\u2581(2)": 2742,
  "\u2581sens": 2743,
  "\u2581continued": 2744,
  "\u2581economy": 2745,
  "\u2581requested": 2746,
  "99": 2747,
  "\u2581cooperaci\u00f3n": 2748,
  "\u2581Table": 2749,
  "\u2581Agency": 2750,
  "\u2581CE": 2751,
  "\u2581domestic": 2752,
  "IS": 2753,
  "\u2581quer": 2754,
  "\u2581zona": 2755,
  "\u2581Gu": 2756,
  "\u2581cual": 2757,
  "sso": 2758,
  "\u2581significa": 2759,
  "\u2581items": 2760,
  "\u2581funding": 2761,
  "pon": 2762,
  "cion": 2763,
  "\u00c9tat": 2764,
  "gno": 2765,
  "Con": 2766,
  "\u2581representative": 2767,
  "homme": 2768,
  "\u2581encontrar": 2769,
  "\u2581Ve": 2770,
  "\u2581futuro": 2771,
  "\u2581suas": 2772,
  "menti": 2773,
  "ser": 2774,
  "\u2581proposals": 2775,
  "\u2581estaba": 2776,
  "27": 2777,
  "\u2581lost": 2778,
  "17": 2779,
  "cul": 2780,
  "\u2581stage": 2781,
  "of": 2782,
  "\u2581nouveaux": 2783,
  "\u2581quelques": 2784,
  "\u2581diferentes": 2785,
  "\u2581behalf": 2786,
  "\u2581Maybe": 2787,
  "based": 2788,
  "\u2581protect": 2789,
  "\u2581indica": 2790,
  "ide": 2791,
  "her": 2792,
  "\u2581posso": 2793,
  "\u2581importantes": 2794,
  "\u2581ora": 2795,
  "\u2581labour": 2796,
  "\u2581agreements": 2797,
  "\u2581Ko": 2798,
  "\u2581IN": 2799,
  "\u258148": 2800,
  "\u2581throughout": 2801,
  "\u2581partners": 2802,
  "\u2581Pas": 2803,
  "\u2581Quando": 2804,
  "\u00f5es": 2805,
  "\u2581500": 2806,
  "cas": 2807,
  "-1": 2808,
  "\u2581pourrait": 2809,
  "\u2581instrument": 2810,
  "\u2581photo": 2811,
  "\u2581altri": 2812,
  "pri": 2813,
  "tin": 2814,
  "time": 2815,
  "\u2581former": 2816,
  "end": 2817,
  "\u2581mes": 2818,
  "lan": 2819,
  "28": 2820,
  "\u2581David": 2821,
  "hui": 2822,
  "urs": 2823,
  "\u00e9tait": 2824,
  "\u2581kill": 2825,
  "/2": 2826,
  "\u2581covered": 2827,
  "\u2581visant": 2828,
  "\u2581While": 2829,
  "\u2581professional": 2830,
  "\u258136": 2831,
  "\u00e7o": 2832,
  "\u2581posible": 2833,
  "\u2581Cal": 2834,
  "\u2581ten": 2835,
  "mes": 2836,
  "aire": 2837,
  "\u2581fight": 2838,
  "ura": 2839,
  "\u2581figure": 2840,
  "\u2581Loi": 2841,
  "\u25811994": 2842,
  "\u2581poco": 2843,
  "\u2581hospital": 2844,
  "\u2581nuestra": 2845,
  "\u2581ayuda": 2846,
  "\u2581achieve": 2847,
  "\u2581dis": 2848,
  "cio": 2849,
  "\u2581condiciones": 2850,
  "\u2581d\u00edas": 2851,
  "\u2581essa": 2852,
  "inter": 2853,
  "action": 2854,
  "\u2581outre": 2855,
  "9": 2856,
  "\u2581internacionales": 2857,
  "\u2581facilities": 2858,
  "\u2581prin": 2859,
  "\u2581heures": 2860,
  "\u2581EN": 2861,
  "\u2581phase": 2862,
  "cen": 2863,
  "\u2581cover": 2864,
  "\u2581Commissioner": 2865,
  "\u2581equal": 2866,
  "\u2581sociales": 2867,
  "\u2581oil": 2868,
  "\u2581Ja": 2869,
  "\u2581expressed": 2870,
  "\u2581\u015ei": 2871,
  "\u2581weight": 2872,
  "\u2581email": 2873,
  "\u2581millones": 2874,
  "bile": 2875,
  "@": 2876,
  "\u2581Asia": 2877,
  "mon": 2878,
  "\u2581Dieu": 2879,
  "ssa": 2880,
  "n\u00e7a": 2881,
  "\u2581traitement": 2882,
  "\u2581contract": 2883,
  "\u2581North": 2884,
  "\u2581tema": 2885,
  "\u2581wife": 2886,
  "IN": 2887,
  "\u2581apenas": 2888,
  "area": 2889,
  "\u2581modern": 2890,
  "\u2581marco": 2891,
  "\u2581music": 2892,
  "para": 2893,
  "Unis": 2894,
  "\u2581Qui": 2895,
  "\u2581parece": 2896,
  "BAR": 2897,
  "\u2581rule": 2898,
  "\u2581chose": 2899,
  "\u2581news": 2900,
  "\u2581beginning": 2901,
  "\u2581isn": 2902,
  "\u2581lives": 2903,
  "\u2581novembre": 2904,
  "\u25811997": 2905,
  "29": 2906,
  "\u2581Lu": 2907,
  "application": 2908,
  "\u2581nacionales": 2909,
  "\u2581nice": 2910,
  "Por": 2911,
  "ito": 2912,
  "bar": 2913,
  "\u2581publication": 2914,
  "\u2581Convenci\u00f3n": 2915,
  "\u2581dall": 2916,
  "\u2581besoins": 2917,
  "\u2581Spain": 2918,
  "nal": 2919,
  "\u2581cara": 2920,
  "ata": 2921,
  "\u2581values": 2922,
  "ak": 2923,
  "\u2581step": 2924,
  "ient": 2925,
  "OS": 2926,
  "\u2581pra": 2927,
  "\u2581ways": 2928,
  "\u2581considera": 2929,
  "\u2581evaluation": 2930,
  "\u2581Management": 2931,
  "\u25811990": 2932,
  "ari": 2933,
  "\u2581income": 2934,
  "\u2581ogni": 2935,
  "\u2581moyen": 2936,
  "\u2581financement": 2937,
  "\u2581dac\u0103": 2938,
  "\u2581salud": 2939,
  "\u2581establish": 2940,
  "\u2581planning": 2941,
  "\u2581remain": 2942,
  "\u2581publique": 2943,
  "wa": 2944,
  "\u2581criteria": 2945,
  "elles": 2946,
  "\u2581bed": 2947,
  "\u2581Secretario": 2948,
  "\u2581mio": 2949,
  "\u2581Justice": 2950,
  "ted": 2951,
  "tul": 2952,
  "bri": 2953,
  "\u2581truth": 2954,
  "\u00f3n": 2955,
  "\u2581clients": 2956,
  "nas": 2957,
  "\u2581travel": 2958,
  "\u2581d\u00f3lares": 2959,
  "\u2581knew": 2960,
  "\u2581credit": 2961,
  "\u2581Check": 2962,
  "ront": 2963,
  "\u2581rapports": 2964,
  "\u2581disponibles": 2965,
  "\u25816.": 2966,
  "\u2581communities": 2967,
  "CO": 2968,
  "\u2581computer": 2969,
  "\u2581R\u00e9": 2970,
  "bu": 2971,
  "cent": 2972,
  "\u2581grupos": 2973,
  "ants": 2974,
  "qu\u00e9": 2975,
  "En": 2976,
  "ments": 2977,
  "\u2581pouvoir": 2978,
  "col": 2979,
  "2,": 2980,
  "\u2581consultations": 2981,
  "\u2581Isso": 2982,
  "\u2581mujer": 2983,
  "\u2581matters": 2984,
  "ier": 2985,
  "\u2581ale": 2986,
  "\u2581n\u00e9cessaire": 2987,
  "\u2581poverty": 2988,
  "cher": 2989,
  "\u2581Google": 2990,
  "\u2581sound": 2991,
  "\u2581valeur": 2992,
  "\u2581deben": 2993,
  "\u2581reasons": 2994,
  "\u2581hold": 2995,
  "\u2581reduction": 2996,
  "\u2581prepared": 2997,
  "\u2581tre": 2998,
  "\u2581contained": 2999,
  "\u2581supply": 3000,
  "\u2581calidad": 3001,
  "\u2581tomar": 3002,
  "\u2581series": 3003,
  "\u2581Ministry": 3004,
  "\u2581avis": 3005,
  "\u2581primera": 3006,
  "utilisation": 3007,
  "\u2581objetivo": 3008,
  "\u2581permanent": 3009,
  "\u2581donn\u00e9": 3010,
  "\u2581Ru": 3011,
  "\u2581consultation": 3012,
  "\u2581asistencia": 3013,
  "\u2581centres": 3014,
  "\u2581Ju": 3015,
  "\u2581issued": 3016,
  "\u2581lado": 3017,
  "\u2581freedom": 3018,
  "\u2581physical": 3019,
  "emploi": 3020,
  "\u2581famille": 3021,
  "\u2581Unidos": 3022,
  "\u2581labor": 3023,
  "\u2581siempre": 3024,
  "\u2581terme": 3025,
  "\u2581ella": 3026,
  "Fi": 3027,
  "\u2581tuo": 3028,
  "\u2581cosas": 3029,
  "\u2581Protocol": 3030,
  "\u00f1a": 3031,
  "nica": 3032,
  "\u2581weeks": 3033,
  "\u2581perfect": 3034,
  "cal": 3035,
  "96": 3036,
  "\u2581serait": 3037,
  "\u2581commerce": 3038,
  "CI": 3039,
  "ED": 3040,
  "\u2581bit": 3041,
  "\u2581safe": 3042,
  "\u2581laws": 3043,
  "\u2581balance": 3044,
  "\u2581everyone": 3045,
  "\u2581connection": 3046,
  "\u2581concept": 3047,
  "\u2581record": 3048,
  "less": 3049,
  "\u2581Conselho": 3050,
  "\u2581cross": 3051,
  "\u2581sex": 3052,
  "\u2581tua": 3053,
  "ING": 3054,
  "\u2581Euro": 3055,
  "\u2581PC": 3056,
  "\u00eancia": 3057,
  "\u2581porta": 3058,
  "32": 3059,
  "\u2581fie": 3060,
  "\u015fi": 3061,
  "34": 3062,
  "?\"": 3063,
  "\u2581meses": 3064,
  "\u2581isto": 3065,
  "\u2581mieux": 3066,
  "\u2581phone": 3067,
  "\u2581certaines": 3068,
  "\u258134": 3069,
  "\u2581individuals": 3070,
  "\u2581serve": 3071,
  "\u25815,": 3072,
  "\u2581Sub": 3073,
  "\u2581thank": 3074,
  "\u2581organismes": 3075,
  "\u2581Search": 3076,
  "\u2581celle": 3077,
  "ali": 3078,
  "\u2581offre": 3079,
  "\u2581According": 3080,
  "\u2581Art": 3081,
  "duc": 3082,
  "\u2581steps": 3083,
  "\u2581Gouvernement": 3084,
  "\u2581Pa": 3085,
  "\u2581commitment": 3086,
  "r\u00e1n": 3087,
  "\u2581juillet": 3088,
  "val": 3089,
  "\u2581ground": 3090,
  "\u2581stock": 3091,
  "\u2581Tom": 3092,
  "\u2581pouvez": 3093,
  "\u2581inside": 3094,
  "ab": 3095,
  "\u2581Jehovah": 3096,
  "\u2581reach": 3097,
  "\u2581organisation": 3098,
  "\u2581Conf\u00e9rence": 3099,
  "n\u00e9": 3100,
  "\u2581quand": 3101,
  "m\u0103": 3102,
  "\u2581opportunities": 3103,
  "\u2581East": 3104,
  "\u2581cookies": 3105,
  "\u2581animal": 3106,
  "\u2581segundo": 3107,
  "\u2581Parlement": 3108,
  "\u2581Date": 3109,
  "\u2581sense": 3110,
  "\u2581Reglamento": 3111,
  "\u2581outros": 3112,
  "\u2581late": 3113,
  "dis": 3114,
  "\u2581learn": 3115,
  "\u2581marketing": 3116,
  "\u2581Comp": 3117,
  "\u00e8re": 3118,
  "\u2581baby": 3119,
  "Ma": 3120,
  "\u2581vamos": 3121,
  "\u2581algunos": 3122,
  "ice": 3123,
  "\u2581AND": 3124,
  "ah": 3125,
  "23": 3126,
  "\u2581Santa": 3127,
  "05": 3128,
  "\u2581relationship": 3129,
  "\u2581aumento": 3130,
  "\u2581behind": 3131,
  "\u2581lower": 3132,
  "lhe": 3133,
  "\u2581Cour": 3134,
  "\u258137": 3135,
  "\u2581quite": 3136,
  "\u2581News": 3137,
  "\u2581mars": 3138,
  "\u2581Vamos": 3139,
  "\u2581empresa": 3140,
  "\u2581sais": 3141,
  "iti": 3142,
  "\u00bb.": 3143,
  "ique": 3144,
  "\u2581creation": 3145,
  "\u2581IV": 3146,
  "teurs": 3147,
  "\u2581killed": 3148,
  "\u2581girls": 3149,
  "\u2581surface": 3150,
  "\u2581Hu": 3151,
  "\u2581Iraq": 3152,
  "\u2581CON": 3153,
  "\u2581notes": 3154,
  "\u2581University": 3155,
  ".6": 3156,
  "\u2581Cap": 3157,
  "\u2581Adem\u00e1s": 3158,
  "\u2581himself": 3159,
  "\u2581situations": 3160,
  "\u2581overall": 3161,
  "\u2581pursuant": 3162,
  "\u2581superior": 3163,
  "\u2581estamos": 3164,
  "\u2581places": 3165,
  "\u2581Val": 3166,
  "22": 3167,
  "ized": 3168,
  "\u2581reform": 3169,
  "\u2581users": 3170,
  "\u2581identified": 3171,
  "\u2581methods": 3172,
  "\u2581wasn": 3173,
  "\u2581Note": 3174,
  "ial": 3175,
  "\u2581jeunes": 3176,
  "\u2581communications": 3177,
  "\u2581send": 3178,
  "\u2581cre": 3179,
  "\u2581interests": 3180,
  "\u2581families": 3181,
  "\u2581artigo": 3182,
  "\u2581reporting": 3183,
  "\u2581jamais": 3184,
  "\u2581elements": 3185,
  "\u2581acceso": 3186,
  "\u2581image": 3187,
  "\u2581tenu": 3188,
  "\u2581priority": 3189,
  "31": 3190,
  "\u2581cuestiones": 3191,
  "\u2581understanding": 3192,
  "\u2581capacidad": 3193,
  "\u2581amor": 3194,
  "26": 3195,
  "\u2581visto": 3196,
  "\u2581autorit\u00e9s": 3197,
  "\u2581implement": 3198,
  "\u2581nosotros": 3199,
  "\u2581janvier": 3200,
  "\u2581enter": 3201,
  "\u2581normas": 3202,
  "\u2581options": 3203,
  "gio": 3204,
  "\u2581durable": 3205,
  "\u2581principales": 3206,
  "CN": 3207,
  "\u2581add": 3208,
  "\u25812006,": 3209,
  "\u2581disease": 3210,
  "\u2581app": 3211,
  "\u00ae": 3212,
  "ction": 3213,
  "\u2581ju": 3214,
  "\u2581century": 3215,
  "\u2581quello": 3216,
  "\u2581relativa": 3217,
  "\u2581fonds": 3218,
  "\u2581van": 3219,
  "\u2581Portugal": 3220,
  "\u2581mult": 3221,
  "\u25812005,": 3222,
  "tique": 3223,
  "\u2581importa": 3224,
  "\u2581logo": 3225,
  "\u2581sentido": 3226,
  "\u2581guide": 3227,
  "\u2581Ga": 3228,
  "AR": 3229,
  "\u2581category": 3230,
  "\u2581uh": 3231,
  "\u2581states": 3232,
  ".9": 3233,
  "\u2581movement": 3234,
  "\u2581Research": 3235,
  "33": 3236,
  "\u2581Party": 3237,
  "\u00e9valuation": 3238,
  "\u2581maintenant": 3239,
  "\u2581donner": 3240,
  "ani": 3241,
  "\u2581Description": 3242,
  "\u2581sino": 3243,
  "\u2581entitled": 3244,
  "cro": 3245,
  "\u2581hands": 3246,
  "\u2581p\u00e1rrafo": 3247,
  "TA": 3248,
  "ham": 3249,
  "\u2581agricultural": 3250,
  "tur": 3251,
  "\u2581require": 3252,
  "\u2581port": 3253,
  "articolo": 3254,
  "voir": 3255,
  "\u2581Organisation": 3256,
  "\u2581paper": 3257,
  "\u2581fire": 3258,
  "\u2581spa": 3259,
  "\u2581written": 3260,
  "dy": 3261,
  "\u2581challenges": 3262,
  "\u2581bajo": 3263,
  "\u2581fecha": 3264,
  "\u2581sein": 3265,
  "\u2581autoridades": 3266,
  "\u2581dove": 3267,
  "\u2581species": 3268,
  "\u2581grave": 3269,
  "45": 3270,
  "\u2581enjoy": 3271,
  "\u2581comprehensive": 3272,
  "\u2581ancora": 3273,
  "\u2581station": 3274,
  "\u258138": 3275,
  "\u2581stand": 3276,
  "ize": 3277,
  "ov": 3278,
  "gre": 3279,
  "t\u00f3": 3280,
  "\u2581EC": 3281,
  "\u2013": 3282,
  "\u2581papel": 3283,
  "\u2581payment": 3284,
  "rei": 3285,
  "El": 3286,
  "\u25811993": 3287,
  "\u2581affaires": 3288,
  "sur": 3289,
  "\u2581defined": 3290,
  "\u2581India": 3291,
  "\u2581recommended": 3292,
  "\u2581net": 3293,
  "\u2581anyone": 3294,
  "\u2581addressed": 3295,
  "55": 3296,
  "\u2581Rapporteur": 3297,
  "\u2581wants": 3298,
  "\u2581Oui": 3299,
  "\u2581regolamento": 3300,
  "\u2581federal": 3301,
  "\u2581conformidad": 3302,
  "\u2581arrangements": 3303,
  "\u2581syst\u00e8mes": 3304,
  "\u2581speak": 3305,
  "\u2581infrastructure": 3306,
  "\u2581podemos": 3307,
  "AM": 3308,
  "\u2581diciembre": 3309,
  "\u2581territory": 3310,
  "\u2581prodotti": 3311,
  "\u2581West": 3312,
  "\u2581Ai": 3313,
  "year": 3314,
  "\u2581S\u00ed": 3315,
  "\u2581ambiente": 3316,
  "autre": 3317,
  "36": 3318,
  "\u2581presence": 3319,
  "ario": 3320,
  "\u2581letter": 3321,
  "\u2581montant": 3322,
  "\u2581vita": 3323,
  "9/": 3324,
  "\u2581dijo": 3325,
  "\u2581Comme": 3326,
  "-2": 3327,
  "\u2581qualquer": 3328,
  "\u2581answer": 3329,
  "\u2581Thanks": 3330,
  "\u2581independent": 3331,
  "\u2581proc\u00e9dure": 3332,
  "\u2581About": 3333,
  "EL": 3334,
  "\u2581300": 3335,
  "cca": 3336,
  "cra": 3337,
  "\u2581senza": 3338,
  "\u2581build": 3339,
  "\u2581n\u00e9cessaires": 3340,
  "\u2581vertu": 3341,
  "\u2581prior": 3342,
  "\u2581Secretariat": 3343,
  "\u2581Plus": 3344,
  "\u2581atenci\u00f3n": 3345,
  "pos": 3346,
  "\u2581entire": 3347,
  "\u2581choice": 3348,
  "\u2581markets": 3349,
  "\u25812004,": 3350,
  "\u2581delegation": 3351,
  "\u2581ville": 3352,
  "\u2581sim": 3353,
  "nie": 3354,
  "\u2581podem": 3355,
  "\u2581effort": 3356,
  "oso": 3357,
  "\u2581views": 3358,
  "ot": 3359,
  "\u2581built": 3360,
  "\u2581certo": 3361,
  "\u2581p\u00e9": 3362,
  "\u2581sp\u00e9cial": 3363,
  "\u2581Association": 3364,
  "\u2581factors": 3365,
  "\u2581pai": 3366,
  "\u2581substances": 3367,
  "\u2581Tambi\u00e9n": 3368,
  "\u2581lorsque": 3369,
  "39": 3370,
  "ola": 3371,
  "\u2581tenho": 3372,
  "\u2581cr\u00e9ation": 3373,
  "int": 3374,
  "\u2581wait": 3375,
  "\u2581c\u00f3mo": 3376,
  "\u25817.": 3377,
  "\u2581CO": 3378,
  "ch\u00e9": 3379,
  "nta": 3380,
  "\u2581carry": 3381,
  "\u2581shown": 3382,
  "\u2581establishing": 3383,
  "\u2581Red": 3384,
  "\u2581pressure": 3385,
  "\u2581cerca": 3386,
  "adas": 3387,
  "\u2581tour": 3388,
  "ere": 3389,
  "lia": 3390,
  "\u2581tale": 3391,
  "\u2581became": 3392,
  "\u2581shows": 3393,
  "\u2581s\u00ed": 3394,
  "\u2581village": 3395,
  "ER": 3396,
  "\u2581People": 3397,
  "\u2581likely": 3398,
  "fici": 3399,
  "\u2581Nos": 3400,
  "\u2581Church": 3401,
  "\u2581laid": 3402,
  "\u2581Estou": 3403,
  "\u2581walk": 3404,
  "\u2581happy": 3405,
  "ira": 3406,
  "\u2581loss": 3407,
  "\u2581Fe": 3408,
  "tina": 3409,
  "mbre": 3410,
  "\u2581opera": 3411,
  "\u2581frente": 3412,
  "\u2581Va": 3413,
  "\u2581Policy": 3414,
  "\u2581probl\u00e8me": 3415,
  "\u2581War": 3416,
  "\u2581guerra": 3417,
  "\u2581r\u00e9union": 3418,
  "\u2581black": 3419,
  "\u2581font": 3420,
  "\u2581t\u00e3o": 3421,
  "\u2581surveillance": 3422,
  "\u2581class": 3423,
  "\u2581europeo": 3424,
  "\u2581soutien": 3425,
  "aria": 3426,
  "\u2581c\u00e2nd": 3427,
  "\u2581disso": 3428,
  "37": 3429,
  "\u2581German": 3430,
  "\u2581locales": 3431,
  "\u2581Porque": 3432,
  "\u2581initial": 3433,
  "let": 3434,
  "\u2581eyes": 3435,
  "bor": 3436,
  "\u2581Forum": 3437,
  "\u2581RE": 3438,
  "\u2581seems": 3439,
  "07": 3440,
  "\u2581victims": 3441,
  "\u2581intended": 3442,
  "\u2581Right": 3443,
  "\u2581Support": 3444,
  "mas": 3445,
  "day": 3446,
  "\u2581myself": 3447,
  "\u2581sommes": 3448,
  "\u2581seja": 3449,
  "\u258139": 3450,
  "\u2581mare": 3451,
  "\u2581daily": 3452,
  "\u2581clearly": 3453,
  "\u2581Tri": 3454,
  "\u2581tine": 3455,
  "ification": 3456,
  "\u25812019": 3457,
  "\u2581strengthen": 3458,
  "\u2581probably": 3459,
  "\u2581camp": 3460,
  "\u2581Sud": 3461,
  "\u2581campo": 3462,
  "\u2581hacia": 3463,
  "Al": 3464,
  "\u2581hombre": 3465,
  "\u2581follows": 3466,
  "\u2581poate": 3467,
  "\u2581septembre": 3468,
  "\u00e1rio": 3469,
  "\u2581zones": 3470,
  "75": 3471,
  "\u2581acts": 3472,
  "\u2581trust": 3473,
  "\u2581led": 3474,
  "osa": 3475,
  "\u2581hell": 3476,
  "\u2581==": 3477,
  "\u2581miles": 3478,
  "\u2581regime": 3479,
  "2.": 3480,
  "\u2581circumstances": 3481,
  "\u2581produced": 3482,
  "\u2581permet": 3483,
  "\u2581comments": 3484,
  "\u2581medida": 3485,
  "\u2581Bem": 3486,
  "\u2581maybe": 3487,
  "ish": 3488,
  "\u2581Bu": 3489,
  "\u2581door": 3490,
  "ual": 3491,
  "\u2581Nord": 3492,
  "06": 3493,
  "\u2581Comment": 3494,
  "\u2581exercise": 3495,
  "\u2581processes": 3496,
  "\u2581Gar": 3497,
  "\u2581accord": 3498,
  "\u2581processo": 3499,
  "\u2581regulations": 3500,
  "\u2581donne": 3501,
  "\u2581d\u00e9penses": 3502,
  "\u2581assurer": 3503,
  "44": 3504,
  "\u2581bom": 3505,
  "47": 3506,
  "\u2581cuesti\u00f3n": 3507,
  "\u2581map": 3508,
  "ques": 3509,
  "2/": 3510,
  "\u2581committed": 3511,
  "\u2581increasing": 3512,
  "\u2581moyens": 3513,
  "\u2581produce": 3514,
  "\u2581cos\u00ec": 3515,
  "\u2581story": 3516,
  "cci\u00f3n": 3517,
  "\u2581spirit": 3518,
  "\u2581devraient": 3519,
  "\u2581option": 3520,
  "\u2581juste": 3521,
  "\u2581sotto": 3522,
  "enta": 3523,
  "38": 3524,
  "\u2581export": 3525,
  "1/": 3526,
  "\u2581conclusions": 3527,
  "\u2581COM": 3528,
  "\u25812003,": 3529,
  "\u2581ensemble": 3530,
  "\u2581Seguridad": 3531,
  "apr\u00e8s": 3532,
  "\u2581Bible": 3533,
  "\u2581risque": 3534,
  "\u2581implementing": 3535,
  "\u2581strategic": 3536,
  "\u2581primer": 3537,
  "\u2581missions": 3538,
  "\u2581esos": 3539,
  "\u2581manner": 3540,
  "\u2581\u00e9l\u00e9ments": 3541,
  "\u2581measure": 3542,
  "\u25812007,": 3543,
  "\u2581cut": 3544,
  "n\u0103": 3545,
  "\u2581octobre": 3546,
  "\u2581ba": 3547,
  "\u2581armas": 3548,
  "\u25812000,": 3549,
  "\u2581whom": 3550,
  "\u2581traditional": 3551,
  "\u2581contribute": 3552,
  "\u2581vehicle": 3553,
  "97": 3554,
  "\u2581encourage": 3555,
  "\u2581external": 3556,
  "\u2581sectors": 3557,
  "\u2581Cha": 3558,
  "\u2581Division": 3559,
  "\u2581quatre": 3560,
  "r\u0103": 3561,
  "\u2581sign": 3562,
  "\u2581possono": 3563,
  "\u2581remains": 3564,
  "ions": 3565,
  "\u2581VI": 3566,
  "\u2581combat": 3567,
  "\u2581majority": 3568,
  "\u2581climate": 3569,
  "\u2581function": 3570,
  "SE": 3571,
  "AN": 3572,
  "\u2581podr\u00eda": 3573,
  "48": 3574,
  "\u2581thinking": 3575,
  "\u2581stated": 3576,
  "\u2581Constitution": 3577,
  "49": 3578,
  "\u2581quem": 3579,
  "\u2581oeuvre": 3580,
  "\u2581amended": 3581,
  "\u2581allowed": 3582,
  "\u2581vis": 3583,
  "\u2581avaient": 3584,
  "\u2581Under": 3585,
  "\u2581ceva": 3586,
  "\u2581Data": 3587,
  "\u2581sorte": 3588,
  "\u2581hora": 3589,
  "04": 3590,
  "4/": 3591,
  "\u2581Federal": 3592,
  "\u2581supported": 3593,
  "mine": 3594,
  "UN": 3595,
  "tan": 3596,
  "\u2581res": 3597,
  "\u2581Executive": 3598,
  "\u2581nelle": 3599,
  "\u2581fins": 3600,
  "Pro": 3601,
  "\u2581choose": 3602,
  "\u2581propose": 3603,
  "\u2581decide": 3604,
  "\u2581stata": 3605,
  "\u2581Read": 3606,
  "\u2581format": 3607,
  "\u2581Sal": 3608,
  "\u2581apartado": 3609,
  "\u2581minute": 3610,
  "\u2581Rome": 3611,
  "\u2581Spanish": 3612,
  "\u2581rien": 3613,
  "cla": 3614,
  "\u2581haut": 3615,
  "\u2581haber": 3616,
  "\u2581devant": 3617,
  "\u2581wide": 3618,
  "\u2581photos": 3619,
  "\u2581popular": 3620,
  "\u2581humanitarian": 3621,
  "isme": 3622,
  "\u2581transition": 3623,
  "\u2581falta": 3624,
  "`": 3625,
  "\u2581mentioned": 3626,
  "tel": 3627,
  "\u2581description": 3628,
  "\u2581institution": 3629,
  "\u2581motor": 3630,
  "ghe": 3631,
  "environnement": 3632,
  "\u2581diff\u00e9rents": 3633,
  "\u2581est\u00e1s": 3634,
  "\u2581ciudad": 3635,
  "\u2581poor": 3636,
  "\u2581granted": 3637,
  "\u2581hommes": 3638,
  "\u2581tele": 3639,
  "\u00fc": 3640,
  "\u2581Entre": 3641,
  "\u2581Assembl\u00e9e": 3642,
  "ET": 3643,
  "\u2581ones": 3644,
  "\u2581cap": 3645,
  "\u2581weapons": 3646,
  "\u2581aider": 3647,
  "\u2581competent": 3648,
  "\u2581\u00e9tant": 3649,
  "\u2581Sol": 3650,
  "\u2581anexo": 3651,
  "\u2581acerca": 3652,
  "\u2581decisi\u00f3n": 3653,
  "\u2581noite": 3654,
  "\u2581affected": 3655,
  "\u2581drug": 3656,
  "77": 3657,
  "\u2581concerns": 3658,
  "\u2581Having": 3659,
  "\u2581serie": 3660,
  "ek": 3661,
  "\u2581pla": 3662,
  "\u2581earth": 3663,
  "\u2581prison": 3664,
  "ities": 3665,
  "\u25816,": 3666,
  "\u2581d\u00e9but": 3667,
  "don": 3668,
  "\u2581fournir": 3669,
  "\u2581alto": 3670,
  "\u25812002,": 3671,
  "\u2581muchos": 3672,
  "ille": 3673,
  "\u2581although": 3674,
  "\u2581Global": 3675,
  "Europe": 3676,
  "\u2581success": 3677,
  "\u2581sal": 3678,
  "8/": 3679,
  "\u2581fiscal": 3680,
  "\u2581occasion": 3681,
  "\u2581compared": 3682,
  "\u258155": 3683,
  "\u2581\u00e9conomiques": 3684,
  "remos": 3685,
  "\u2581calls": 3686,
  "65": 3687,
  "\u2581lutte": 3688,
  "\u2581Derechos": 3689,
  "\u2581Esto": 3690,
  "\u2581aide": 3691,
  "\u2581Centro": 3692,
  "mb": 3693,
  "\u2581drive": 3694,
  "\u2581agua": 3695,
  "\u2581pal": 3696,
  "ue": 3697,
  "\u2581floor": 3698,
  "\u2581Facebook": 3699,
  "\u2581m\u00e9": 3700,
  "\u2581indicated": 3701,
  "\u2581Dio": 3702,
  "\u2581vision": 3703,
  "\u2581entry": 3704,
  "ico": 3705,
  "\u2581waste": 3706,
  "-3": 3707,
  "\u2581corre": 3708,
  "5/": 3709,
  "iser": 3710,
  "\u2581mandat": 3711,
  "\u00e9r": 3712,
  "\u2581Bra": 3713,
  "\u2581billion": 3714,
  "\u2581giving": 3715,
  "\u2581integration": 3716,
  "ring": 3717,
  "Unione": 3718,
  "\u2581brother": 3719,
  "\u2581allows": 3720,
  "\u2581Amarillas": 3721,
  "\u2581vor": 3722,
  "bla": 3723,
  "\u25811992": 3724,
  "41": 3725,
  "\u2581followed": 3726,
  "\u2581Hay": 3727,
  "\u2581pratiques": 3728,
  "\u2581programs": 3729,
  "\u2581conduct": 3730,
  "\u258165": 3731,
  "\u2581route": 3732,
  "\u2581wouldn": 3733,
  "\u2581trop": 3734,
  "\u2581judicial": 3735,
  "\u2581renforcer": 3736,
  "\u2581TO": 3737,
  "g\u00e9": 3738,
  "\u2581requests": 3739,
  "\u2581deuxi\u00e8me": 3740,
  "sen": 3741,
  "\u2581(1": 3742,
  "94": 3743,
  "istas": 3744,
  "\u2581Russian": 3745,
  "\u2581machine": 3746,
  "\u2581images": 3747,
  "\u2581nombreux": 3748,
  "\u2581unit": 3749,
  "\u2581faith": 3750,
  "\u2581primary": 3751,
  "\u2581\u00c8": 3752,
  "\u2581described": 3753,
  "cle": 3754,
  "ador": 3755,
  "\u2581ben": 3756,
  "\u258175": 3757,
  "\u2581aim": 3758,
  "nda": 3759,
  ".8": 3760,
  "cus": 3761,
  "\u2581conducted": 3762,
  "ville": 3763,
  "\u2581happen": 3764,
  "ph": 3765,
  "\u2581Uh": 3766,
  "3/": 3767,
  "\u2581fall": 3768,
  "\u2581thanks": 3769,
  "\u2581Ven": 3770,
  "\u2581investigation": 3771,
  "\u2581patient": 3772,
  "\u2581scientific": 3773,
  "\u2581mandate": 3774,
  "\u2581dopo": 3775,
  "\u2581internationales": 3776,
  "\u2581ideal": 3777,
  "vin": 3778,
  "\u2581import": 3779,
  "\u2581Italian": 3780,
  "CH": 3781,
  "\u2581determined": 3782,
  "\u2581avoid": 3783,
  "\u2581vu": 3784,
  "\u2581Cuba": 3785,
  "\u2581trav\u00e9s": 3786,
  "\u2581style": 3787,
  ".7": 3788,
  "\u2581reste": 3789,
  "\u2581contains": 3790,
  "\u2581gone": 3791,
  "\u2581s\u00e9rie": 3792,
  "gas": 3793,
  "\u2581cinq": 3794,
  "\u2581buy": 3795,
  "\u2581features": 3796,
  "\u2581conclusion": 3797,
  "\u2581normes": 3798,
  "\u2581continua": 3799,
  "\u2581center": 3800,
  "nge": 3801,
  "\u2581objetivos": 3802,
  "\u2581Programa": 3803,
  "\u2581parce": 3804,
  "\u2581mechanisms": 3805,
  "\u2581recommandations": 3806,
  "\u2581ficar": 3807,
  "tant": 3808,
  "\u2581doar": 3809,
  "\u2581interior": 3810,
  "08": 3811,
  "\u2581implemented": 3812,
  "\u2581Cuando": 3813,
  "\u2581enable": 3814,
  "gua": 3815,
  "ful": 3816,
  "\u2581Although": 3817,
  "gia": 3818,
  "\u2581maintenance": 3819,
  "mm": 3820,
  "ges": 3821,
  "\u2581partner": 3822,
  "\u2581achieved": 3823,
  "\u2581schools": 3824,
  "\u2581celles": 3825,
  "\u2581bus": 3826,
  "\u258141": 3827,
  "lle": 3828,
  "\u2581Sono": 3829,
  "\u2581immediately": 3830,
  "\u2581operating": 3831,
  "\u2581trebui": 3832,
  "\u2581hi": 3833,
  "\u2581l\u00ednea": 3834,
  "\u2581quelque": 3835,
  "\u2581num": 3836,
  "\u2581::": 3837,
  "\u2581domaines": 3838,
  "We": 3839,
  "\u2581aupr\u00e8s": 3840,
  "bles": 3841,
  "ann\u00e9e": 3842,
  "\u2581p\u00fablico": 3843,
  "\u2581Even": 3844,
  "Me": 3845,
  "\u2581HIV": 3846,
  "RE": 3847,
  "\u2581Have": 3848,
  "\u2581origin": 3849,
  "\u2581approval": 3850,
  "\u258142": 3851,
  "\u2581guidelines": 3852,
  "rlo": 3853,
  "p\u00e9": 3854,
  "\u2581Park": 3855,
  "\u2581informed": 3856,
  "gne": 3857,
  "ries": 3858,
  "\u25812008,": 3859,
  "92": 3860,
  "\u2581couple": 3861,
  "\u2581souvent": 3862,
  "\u2581detailed": 3863,
  "\u2581fuera": 3864,
  "\u2581op\u00e9rations": 3865,
  "\u2581responsabilidad": 3866,
  "\u2581jobs": 3867,
  "\u2581goes": 3868,
  "\u2581quoi": 3869,
  "\u2581Mrs": 3870,
  "\u2581informazioni": 3871,
  "\u2581die": 3872,
  "TM": 3873,
  "(1)": 3874,
  "\u2581agents": 3875,
  "\u2581conforme": 3876,
  "\u2581veux": 3877,
  "vir": 3878,
  "\u2581suivi": 3879,
  "\u2581bonne": 3880,
  "\u2581dernier": 3881,
  "\u2581extent": 3882,
  "\u2581fish": 3883,
  "\u2581influence": 3884,
  "\u2581\u00e1rea": 3885,
  "\u2581worked": 3886,
  "\u2581fac": 3887,
  "\u2581viene": 3888,
  "\u2581quel": 3889,
  "\u2581method": 3890,
  "\u2581mobile": 3891,
  "\u2581r\u00e9gions": 3892,
  "\u2581Italia": 3893,
  "\u2581reviews": 3894,
  "\u2581ab": 3895,
  "\u2581intra": 3896,
  "rci": 3897,
  "7/": 3898,
  "\u2581files": 3899,
  "\u2581documento": 3900,
  "\u2581aimed": 3901,
  "\u2581Questo": 3902,
  "\u2581despre": 3903,
  "\u2581nuestros": 3904,
  "\u2581familia": 3905,
  "\u2581save": 3906,
  "\u2581employees": 3907,
  "\u2581nota": 3908,
  "\u2581welcome": 3909,
  "\u2581agree": 3910,
  "\u2581mode": 3911,
  "\u2581foto": 3912,
  "bili": 3913,
  "2)": 3914,
  "\u2581\u00e9gard": 3915,
  "\u2581Pu": 3916,
  "lha": 3917,
  "\u2581demand\u00e9": 3918,
  "esc": 3919,
  "\u2581maison": 3920,
  "\u2581formal": 3921,
  "\u2581demand": 3922,
  "\u2581operational": 3923,
  "mbo": 3924,
  "cur": 3925,
  "1,": 3926,
  "Se": 3927,
  "\u2581System": 3928,
  "98": 3929,
  "tru": 3930,
  "\u2581financing": 3931,
  "\u2581interested": 3932,
  "\u2581obligation": 3933,
  "\u2581nor": 3934,
  "\u2581pain": 3935,
  "\u2581io": 3936,
  "\u2581gesti\u00f3n": 3937,
  "MA": 3938,
  "\u2581Take": 3939,
  "\u2581Mu": 3940,
  "\u2581especialmente": 3941,
  "\u2581pare": 3942,
  "\u2581seguir": 3943,
  "c\u00e9": 3944,
  "\u2581pouco": 3945,
  "\u25818.": 3946,
  "\u2581Directiva": 3947,
  "miento": 3948,
  "\u2581Conferencia": 3949,
  "\u2581bas": 3950,
  "\u2581participate": 3951,
  "\u25812001,": 3952,
  "\u2581Regional": 3953,
  "IP": 3954,
  "\u2581Ms": 3955,
  "\u2581pretty": 3956,
  "\u2581prevention": 3957,
  "\u2581m\u00ed": 3958,
  "\u2581accept": 3959,
  "\u2581Roma": 3960,
  "\u2581falar": 3961,
  "cido": 3962,
  "\u2581perch\u00e9": 3963,
  "\u2581Peter": 3964,
  "\u2581determine": 3965,
  "02": 3966,
  "\u2581avril": 3967,
  "ona": 3968,
  "\u2581negotiations": 3969,
  "\u2581animals": 3970,
  "way": 3971,
  "DI": 3972,
  "UR": 3973,
  "\u2581Communaut\u00e9": 3974,
  "\u2581Trade": 3975,
  "\u2581permis": 3976,
  "\u2581f\u00e9vrier": 3977,
  "\u2581Will": 3978,
  "67": 3979,
  "\u0163ii": 3980,
  "-4": 3981,
  "\u2581suit": 3982,
  "ny": 3983,
  "\u2581digital": 3984,
  "rra": 3985,
  "izar": 3986,
  "\u2581persone": 3987,
  "\u2581gra": 3988,
  "wi": 3989,
  "\u2581ac": 3990,
  "\u2581reached": 3991,
  "iza": 3992,
  "\u2581mundial": 3993,
  "\u2581Jean": 3994,
  "\u2581proposition": 3995,
  "\u2581fond": 3996,
  "\u2581seven": 3997,
  "\u2581compliance": 3998,
  "OR": 3999,
  "\u2581structures": 4000,
  "nze": 4001,
  "\u2581province": 4002,
  ":00": 4003,
  "\u258149": 4004,
  "bro": 4005,
  "vent": 4006,
  "\u2581gr\u00e2ce": 4007,
  "pin": 4008,
  "\u2581watch": 4009,
  "\u2581requires": 4010,
  "\u2581boy": 4011,
  "ables": 4012,
  "air": 4013,
  "nto": 4014,
  "\u2581necesario": 4015,
  "\u2581completed": 4016,
  "\u2581Tre": 4017,
  "ID": 4018,
  "59": 4019,
  "\u2581qual": 4020,
  "gon": 4021,
  "ig": 4022,
  "\u2581r\u00e8gles": 4023,
  "\u2581Like": 4024,
  "\u2581urban": 4025,
  "6/": 4026,
  "\u2581Australia": 4027,
  "\u2581Gi": 4028,
  "\u2581croissance": 4029,
  "\u2581duty": 4030,
  "\u2581Protection": 4031,
  "\u2581veces": 4032,
  "\u2581science": 4033,
  "sia": 4034,
  "mis": 4035,
  "\u2581carte": 4036,
  "\u25817,": 4037,
  "\u2581toi": 4038,
  "\u2581permite": 4039,
  "\u2581vigueur": 4040,
  "uel": 4041,
  "\u2581pen": 4042,
  "\u2581eux": 4043,
  "\u2581integrated": 4044,
  "ggio": 4045,
  "\u2581tools": 4046,
  "Add": 4047,
  "\u2581Pan": 4048,
  "\u2581acordo": 4049,
  "iens": 4050,
  "\u2581distance": 4051,
  "\u2581proyectos": 4052,
  "\u2581units": 4053,
  "\u2581plant": 4054,
  "ec": 4055,
  "ales": 4056,
  "\u2581bene": 4057,
  "\u2581disponible": 4058,
  "pen": 4059,
  "\u2581beyond": 4060,
  "\u2581sistemas": 4061,
  "ps": 4062,
  "\u2581violations": 4063,
  "\u2581am\u00e9liorer": 4064,
  "\u2581porte": 4065,
  "\u2581As\u00ed": 4066,
  "\u2581medium": 4067,
  "\u2581ability": 4068,
  "\u2581gives": 4069,
  "\u2581cycle": 4070,
  "eaz\u0103": 4071,
  "nel": 4072,
  "ris": 4073,
  "\u2581Villa": 4074,
  "\u2581\u00fanico": 4075,
  "\u2581Est": 4076,
  "\u2581\u00a9": 4077,
  "\u2581delivery": 4078,
  "\u2581frais": 4079,
  "\u2581Col": 4080,
  "yl": 4081,
  "\u2581ideas": 4082,
  "\u2581Ei": 4083,
  "\u2581realmente": 4084,
  "\u2581Arab": 4085,
  "\u2581observations": 4086,
  "\u2581eat": 4087,
  "IM": 4088,
  "enza": 4089,
  "\u2581d\u00e9cisions": 4090,
  "\u2581Tratado": 4091,
  "\u2581verdade": 4092,
  "\u2581quero": 4093,
  "66": 4094,
  "LE": 4095,
  "dire": 4096,
  "\u2581download": 4097,
  "09": 4098,
  "\u2581pension": 4099,
  "\u2581Day": 4100,
  "\u2581nueva": 4101,
  "\u2581reduced": 4102,
  "\u2581outro": 4103,
  "\u2581Sam": 4104,
  "\u2581faz": 4105,
  "\u2581Articles": 4106,
  "vre": 4107,
  "\u2581siguiente": 4108,
  "89": 4109,
  "\u258144": 4110,
  "\u2581min": 4111,
  "\u2581exactly": 4112,
  "\u2581lit": 4113,
  "accord": 4114,
  "\u2581completa": 4115,
  "\u2581Har": 4116,
  "\u2581Declaration": 4117,
  "\u2581profit": 4118,
  "\u2581complex": 4119,
  "\u2581nationales": 4120,
  "\u2581acum": 4121,
  "\u2581pacientes": 4122,
  "\u2581PRO": 4123,
  "\u2581began": 4124,
  "mor": 4125,
  "\u2581tinha": 4126,
  "\u2581cambio": 4127,
  "\u2581dai": 4128,
  "\u2581conference": 4129,
  "\u2581arma": 4130,
  "\u2581link": 4131,
  "\u2581acc\u00e8s": 4132,
  "Pa": 4133,
  "\u2581cinco": 4134,
  "43": 4135,
  "\u2581discussions": 4136,
  "\u2581fair": 4137,
  "\u2581pertinentes": 4138,
  "vel": 4139,
  "\u2581communaut\u00e9": 4140,
  "\u2581r\u00e9f\u00e9rence": 4141,
  "\u2581disposiciones": 4142,
  "\u2581extension": 4143,
  "glia": 4144,
  "\u2581Ten": 4145,
  "\u2581effets": 4146,
  "\u2581identify": 4147,
  "\u2581\u00eates": 4148,
  "\u2581functions": 4149,
  "gado": 4150,
  "ME": 4151,
  "\u2581religious": 4152,
  "\u2581knows": 4153,
  "\u2581ent\u00e3o": 4154,
  "\u2581Two": 4155,
  "\u2581Casa": 4156,
  "\u2581adopt\u00e9": 4157,
  "\u2581correct": 4158,
  "\u2581detto": 4159,
  "\u2581hour": 4160,
  "\u2581bro": 4161,
  "iamo": 4162,
  "\u2581ano": 4163,
  "\u2581aujourd": 4164,
  "\u2581alternative": 4165,
  "\u2581Christian": 4166,
  "\u2581electronic": 4167,
  "\u2581ensuring": 4168,
  "\u2581estoy": 4169,
  "ensemble": 4170,
  "\u2581client": 4171,
  "\u2581servicio": 4172,
  "ori": 4173,
  "\u2581ven": 4174,
  "rica": 4175,
  "\u2581internet": 4176,
  "\u2581mor": 4177,
  "\u2581comprend": 4178,
  "ft": 4179,
  "\u2581uses": 4180,
  "\u2581scope": 4181,
  "\u2581Nacional": 4182,
  "\u2581[...]": 4183,
  "\u2581aucune": 4184,
  "\u2581coisas": 4185,
  "\u2581tot": 4186,
  "\u2581precisa": 4187,
  "\u2581prises": 4188,
  "\u2581Gra": 4189,
  "\u2581servir": 4190,
  "\u2581amendments": 4191,
  "SI": 4192,
  "\u2581acest": 4193,
  "\u2581simply": 4194,
  "ea": 4195,
  "\u2581esas": 4196,
  "68": 4197,
  "\u2581seg\u00fan": 4198,
  "\u2581Art\u00edculo": 4199,
  "\u2581Page": 4200,
  "ker": 4201,
  "\u2581poblaci\u00f3n": 4202,
  "\u2581recently": 4203,
  "\u2581guarantee": 4204,
  "\u2581Therefore": 4205,
  "\u2581universal": 4206,
  "\u2581quali": 4207,
  "\u2581contenu": 4208,
  "\u2581tutte": 4209,
  "\u2581Ah": 4210,
  "\u2581factor": 4211,
  "\u00f2": 4212,
  "our": 4213,
  "\u258152": 4214,
  "\u2581ordre": 4215,
  "ative": 4216,
  "\u2581educaci\u00f3n": 4217,
  "\u2581vir": 4218,
  "zio": 4219,
  "42": 4220,
  "\u2581strategies": 4221,
  "\u2581leading": 4222,
  "illa": 4223,
  "\u2581possibility": 4224,
  "ora": 4225,
  "\u2581board": 4226,
  "\u2581secret": 4227,
  "\u2581mia": 4228,
  "\u2581organized": 4229,
  "To": 4230,
  "amente": 4231,
  "llo": 4232,
  "rmi": 4233,
  "antes": 4234,
  "\u2581primeiro": 4235,
  "\u25818,": 4236,
  "ning": 4237,
  "3,": 4238,
  "\u2581civile": 4239,
  "\u2581junio": 4240,
  "\u2581offered": 4241,
  "\u2581Father": 4242,
  "\u2581ley": 4243,
  "\u2581fueron": 4244,
  "mina": 4245,
  "\u2581View": 4246,
  "berg": 4247,
  "NA": 4248,
  "\u2581break": 4249,
  "\u2581mondial": 4250,
  "\u258185": 4251,
  "\u2581Mer": 4252,
  "\u2581proceedings": 4253,
  "\u2581depois": 4254,
  "\u2581socio": 4255,
  "\u2581tarde": 4256,
  "\u2581died": 4257,
  "vant": 4258,
  "\u2581Desarrollo": 4259,
  "ping": 4260,
  "\u2581torture": 4261,
  "\u2581insurance": 4262,
  "ator": 4263,
  "stan": 4264,
  "IC": 4265,
  "\u2581Part": 4266,
  "\u00e2nd": 4267,
  "\u2581awareness": 4268,
  "\u2581Especial": 4269,
  "\u2581nosso": 4270,
  "\u258192": 4271,
  "\u2581vehicles": 4272,
  "\u2581Sea": 4273,
  "\u2581caused": 4274,
  "\u2581tel": 4275,
  "tivi": 4276,
  "\u2581haven": 4277,
  "lar": 4278,
  "\u2581plazo": 4279,
  "\u2581cabo": 4280,
  "\u258143": 4281,
  "\u2581hot": 4282,
  "\u258151": 4283,
  "\u2581Any": 4284,
  "cta": 4285,
  "\u2581Sta": 4286,
  "\u2581sociedad": 4287,
  "\u2581spus": 4288,
  "\u2581Cristo": 4289,
  "\u2581repr\u00e9sentants": 4290,
  "\u2581cancer": 4291,
  "It": 4292,
  "\u2581participaci\u00f3n": 4293,
  "\u2581homem": 4294,
  "\u2581orden": 4295,
  "\u2581\u00faltimo": 4296,
  "gres": 4297,
  "\u2581familiar": 4298,
  "\u2581regards": 4299,
  "\u2581signed": 4300,
  "\u2581Ge": 4301,
  "\u2581mejorar": 4302,
  "\u2581semana": 4303,
  "\u2581setting": 4304,
  "\u2581n\u00e9": 4305,
  "\u2581skills": 4306,
  "\u2581obtained": 4307,
  "\u2581transporte": 4308,
  "\u2581Todos": 4309,
  "\u2581l\u00e9gislation": 4310,
  "pol": 4311,
  "\u2581introduced": 4312,
  "\u2581texte": 4313,
  "\u00bb,": 4314,
  "\u2581presenta": 4315,
  "mica": 4316,
  "\u2581forte": 4317,
  "03": 4318,
  "tter": 4319,
  "\u2581vais": 4320,
  "86": 4321,
  "ade": 4322,
  "\u2581Bueno": 4323,
  "vers": 4324,
  "\u2581aumentar": 4325,
  "\u25811991": 4326,
  "AT": 4327,
  "TS": 4328,
  "RA": 4329,
  "\u2581investigaci\u00f3n": 4330,
  "\u2581passe": 4331,
  "\u2581casi": 4332,
  "\u2581Such": 4333,
  "\u258156": 4334,
  "\u2581Tem": 4335,
  "\u2581cel": 4336,
  "\u2581Barcelona": 4337,
  "\u015f": 4338,
  "\u2581deber\u00eda": 4339,
  "\u2581Vol": 4340,
  "zia": 4341,
  "\u2581d\u00e9claration": 4342,
  "gri": 4343,
  "\u2581App": 4344,
  "amo": 4345,
  "\u2581producci\u00f3n": 4346,
  "\u2581pr\u00e9sident": 4347,
  "\u2581submit": 4348,
  "85": 4349,
  "\u2581facilitate": 4350,
  "\u2581user": 4351,
  "\u2581Ab": 4352,
  "\u2581placed": 4353,
  "\u2581capacit\u00e9": 4354,
  "46": 4355,
  "\u258154": 4356,
  "\u2581fino": 4357,
  "\u2581provisional": 4358,
  "\u2581except": 4359,
  "\u2581pratique": 4360,
  "\u2581crimes": 4361,
  "\u2581Argentina": 4362,
  "\u2581comit\u00e9": 4363,
  "\u2581sui": 4364,
  "\u2581Official": 4365,
  "emos": 4366,
  "\u0103rii": 4367,
  "\u2581Also": 4368,
  "oc": 4369,
  "\u2581assist": 4370,
  "\u2581wanna": 4371,
  "r\u00f3": 4372,
  "\u2581mondo": 4373,
  "\u2581adequate": 4374,
  "\u2581re\u00e7u": 4375,
  "ines": 4376,
  "\u2581tels": 4377,
  "\u2581mano": 4378,
  "\u2581male": 4379,
  "\u2581Most": 4380,
  "\u2581150": 4381,
  "\u2581committee": 4382,
  "\u2581born": 4383,
  "tt": 4384,
  "\u2581Se\u00f1or": 4385,
  "\u2581maintain": 4386,
  "\u2581populations": 4387,
  "ula": 4388,
  "\u2581youth": 4389,
  "\u2581Grand": 4390,
  "\u2581hair": 4391,
  "\u2581necesidad": 4392,
  "\u2581padre": 4393,
  "\u2581usar": 4394,
  "\u2581diff\u00e9rentes": 4395,
  "form": 4396,
  "ette": 4397,
  "\u25819.": 4398,
  "\u2581progr\u00e8s": 4399,
  "\u2581trouver": 4400,
  "\u2581religion": 4401,
  "\u2581Costa": 4402,
  "\u2581representa": 4403,
  "\u2581pr\u00e8s": 4404,
  "\u2581promoting": 4405,
  "\u2581principio": 4406,
  "\u2581limit": 4407,
  "\u2581nostro": 4408,
  "\u2581prend": 4409,
  "\u2581specified": 4410,
  "\u2581bu": 4411,
  "78": 4412,
  "51": 4413,
  "\u2581Great": 4414,
  "\u0163ie": 4415,
  "\u2581usually": 4416,
  "\u2581contro": 4417,
  "\u2581Men": 4418,
  "\u2581Uma": 4419,
  "\u2581giorno": 4420,
  "\u2581proc\u00e9dures": 4421,
  "\u2581aucun": 4422,
  "\u2581wine": 4423,
  "\u2581cha": 4424,
  "xi": 4425,
  "\u2581dados": 4426,
  "\u2581mental": 4427,
  "\u2581completely": 4428,
  "\u2581marca": 4429,
  "\u2581armed": 4430,
  "bus": 4431,
  "\u2581Za": 4432,
  "\u2581vas": 4433,
  "\u2581collective": 4434,
  "\u2581gens": 4435,
  "\u2581exist": 4436,
  "\u2581Only": 4437,
  "\u2581mort": 4438,
  "dic": 4439,
  "tivos": 4440,
  "\u2581consumption": 4441,
  "\u2581ello": 4442,
  "\u2581husband": 4443,
  "\u00e1vel": 4444,
  "\u2581minutos": 4445,
  "ui": 4446,
  "vio": 4447,
  "\u2581listed": 4448,
  "ens": 4449,
  "\u2581camera": 4450,
  "87": 4451,
  "\u2581separate": 4452,
  "nder": 4453,
  "\u25819,": 4454,
  "93": 4455,
  "met": 4456,
  "\u2581bank": 4457,
  "\u2581propos": 4458,
  "\u2581maior": 4459,
  "\u2581tomorrow": 4460,
  "\u2581terra": 4461,
  "(2)": 4462,
  "\u2581resolutions": 4463,
  "\u2581fruit": 4464,
  "\u2581\u00e9tat": 4465,
  "IR": 4466,
  "\u2581poli": 4467,
  "\u2581ei": 4468,
  "\u2581metal": 4469,
  "lement": 4470,
  "\u2581Journal": 4471,
  "\u2581R\u00e8glement": 4472,
  "ifica": 4473,
  "\u2581(2": 4474,
  "\u2581Era": 4475,
  "ren": 4476,
  "\u2581Open": 4477,
  "\u2581\u00faltima": 4478,
  "\u2581nations": 4479,
  "\u2581pool": 4480,
  "mul": 4481,
  "\u2581marzo": 4482,
  "\u2581Mundial": 4483,
  "\u2581femme": 4484,
  "\u2581highly": 4485,
  "\u2581useful": 4486,
  "\u2581pie": 4487,
  "54": 4488,
  "bil": 4489,
  "die": 4490,
  "\u2581Use": 4491,
  "\u2581ani": 4492,
  "\u2581(19": 4493,
  "\u2581British": 4494,
  "pu": 4495,
  "\u2581puedo": 4496,
  "\u2581aware": 4497,
  "\u2581selection": 4498,
  "\u2581excellent": 4499,
  "ple": 4500,
  "\u2581strengthening": 4501,
  "\u2581learning": 4502,
  "SC": 4503,
  "\u2581autor": 4504,
  "CA": 4505,
  "\u2581Rapport": 4506,
  "rii": 4507,
  "\u2581Children": 4508,
  "\u2581risques": 4509,
  "\u2581kids": 4510,
  "\u2581questi": 4511,
  "\u2581incluso": 4512,
  "\u2581lei": 4513,
  "\u2581Mor": 4514,
  "rez": 4515,
  "\u2581fishing": 4516,
  "\u2581trip": 4517,
  "\u2581Institute": 4518,
  "lic": 4519,
  "\u2581CD": 4520,
  "\u2581Senhor": 4521,
  "\u2581f\u0103cut": 4522,
  "\u2581comunidad": 4523,
  "\u2581writing": 4524,
  "\u2581Maria": 4525,
  "\u2581entra": 4526,
  "\u2581guess": 4527,
  "\u2581ministre": 4528,
  "\u2581efficace": 4529,
  "\u2581skin": 4530,
  "\u2581relativo": 4531,
  "\u258147": 4532,
  "\u2581apartment": 4533,
  "\u2581tool": 4534,
  "\u2581Europeia": 4535,
  "\u2581pesca": 4536,
  "\u2581preparation": 4537,
  "\u2581v\u0103": 4538,
  "ara": 4539,
  "\u2581expert": 4540,
  "\u2581largo": 4541,
  "\u2581luz": 4542,
  "\u2581lhe": 4543,
  "\u2581menu": 4544,
  "\u2581Those": 4545,
  "\u2581(3)": 4546,
  "ations": 4547,
  "\u2581cer": 4548,
  "\u2581Program": 4549,
  "\u2581languages": 4550,
  "\u2581Mme": 4551,
  "\u2581commission": 4552,
  "\u2581siguientes": 4553,
  "tif": 4554,
  "\u2581positions": 4555,
  "\u2581r\u00e9gime": 4556,
  "\u2581utilizar": 4557,
  "\u2581Brazil": 4558,
  "\u2581sometimes": 4559,
  "\u2581Each": 4560,
  "\u2581indi": 4561,
  "\u2581advice": 4562,
  "64": 4563,
  "ule": 4564,
  "vie": 4565,
  "ctor": 4566,
  "cep": 4567,
  "\u2581meaning": 4568,
  "\u2581Business": 4569,
  "\u2581realizar": 4570,
  "anti": 4571,
  "\u25812009,": 4572,
  "\u2581bureau": 4573,
  "\u2581sort": 4574,
  "\u2581kg": 4575,
  "\u2581Minist\u00e8re": 4576,
  "\u2581putea": 4577,
  "gni": 4578,
  "\u2581puis": 4579,
  "\u2581a\u015fa": 4580,
  "acc\u00e8s": 4581,
  "\u2581Qu\u00e9bec": 4582,
  "\u2581speed": 4583,
  "ggi": 4584,
  "ATION": 4585,
  "\u2581Sch": 4586,
  "\u2581regulation": 4587,
  "\u2581permettre": 4588,
  "\u2581tribunal": 4589,
  "moi": 4590,
  "stru": 4591,
  "\u2581latest": 4592,
  "\u00edn": 4593,
  "\u2581changed": 4594,
  "\u258146": 4595,
  "\u2581nationaux": 4596,
  "\u2581misma": 4597,
  "\u2581cro": 4598,
  "\u2581efficiency": 4599,
  "\u2581tests": 4600,
  "ship": 4601,
  "\u2581cart": 4602,
  "\u2581innovation": 4603,
  "\u2581tried": 4604,
  "\u2581r\u00e9seau": 4605,
  "\u2581Many": 4606,
  "\u2581principes": 4607,
  "\u2581Control": 4608,
  "eurs": 4609,
  "\u2581absence": 4610,
  "ase": 4611,
  "\u2581inform": 4612,
  "\u2581card": 4613,
  "\u2581successful": 4614,
  "\u2581Oficina": 4615,
  "dra": 4616,
  "\u2581round": 4617,
  "\u2581a\u00fan": 4618,
  "\u2581paesi": 4619,
  "\u2581seule": 4620,
  "\u2581conjunto": 4621,
  "\u2581plupart": 4622,
  "\u2581press": 4623,
  "\u2581responsable": 4624,
  "\u2581adopt": 4625,
  "[": 4626,
  "TE": 4627,
  "\u2581Tout": 4628,
  "\u2581pat": 4629,
  "\u2581Governments": 4630,
  "\u258164": 4631,
  "udi": 4632,
  "EM": 4633,
  "\u2581monitor": 4634,
  "\u2581steel": 4635,
  "\u2581acci\u00f3n": 4636,
  "\u2581Gli": 4637,
  "\u2581selected": 4638,
  "\u2581peux": 4639,
  "\u2581jo": 4640,
  "\u2581informes": 4641,
  "\u2581task": 4642,
  "\u2581tengo": 4643,
  "\u2581accepted": 4644,
  "\u258157": 4645,
  "part": 4646,
  "\u2581nossa": 4647,
  "\u2581couldn": 4648,
  "\u2581importancia": 4649,
  "\u2581release": 4650,
  "\u2581looks": 4651,
  "\u2581prise": 4652,
  "\u2581Fo": 4653,
  "\u2581cr\u00e9er": 4654,
  "\u2581race": 4655,
  "\u2581peoples": 4656,
  "\u2581divers": 4657,
  "\u2581Product": 4658,
  "\u2581necesidades": 4659,
  "\u2581fur": 4660,
  "ches": 4661,
  "\u2581association": 4662,
  "\u2581Education": 4663,
  "stro": 4664,
  "\u2581ayudar": 4665,
  "\u2581propre": 4666,
  "lon": 4667,
  "\u2581risks": 4668,
  "\u00e8me": 4669,
  "mont": 4670,
  "\u2581opening": 4671,
  "ong": 4672,
  "\u2581hoy": 4673,
  "pan": 4674,
  "led": 4675,
  "\u2581Pen": 4676,
  "particuli\u00e8rement": 4677,
  "\u2581Download": 4678,
  "\u2581garantir": 4679,
  "yer": 4680,
  "\u2581commun": 4681,
  "tamente": 4682,
  "\u2581quickly": 4683,
  "\u2581mientras": 4684,
  "\u2581Bine": 4685,
  "\u2581mercato": 4686,
  "\u2581arms": 4687,
  "\u2581licence": 4688,
  "\u2581mil": 4689,
  "ding": 4690,
  "\u2581visita": 4691,
  "\u2581co\u00fbts": 4692,
  "\u2581processing": 4693,
  "\u2581Uni\u00e3o": 4694,
  "ose": 4695,
  "69": 4696,
  "\u2581novo": 4697,
  "\u2581listen": 4698,
  "\u2581r\u00e9duction": 4699,
  "\u2581particolare": 4700,
  "cy": 4701,
  "\u2581assets": 4702,
  "fre": 4703,
  "tou": 4704,
  "CC": 4705,
  "urile": 4706,
  "\u2581expenditure": 4707,
  "\u2581difference": 4708,
  "\u2581primo": 4709,
  "\u2581observed": 4710,
  "aires": 4711,
  "\u2581director": 4712,
  "\u2581practical": 4713,
  "\u2581agli": 4714,
  "\u2581paragrafo": 4715,
  "\u2581corpo": 4716,
  "off": 4717,
  "\u2581sport": 4718,
  "\u2581Hello": 4719,
  "gui": 4720,
  "\u2581derni\u00e8re": 4721,
  "non": 4722,
  "\u2581prove": 4723,
  "\u2581generally": 4724,
  "\u2581Mexico": 4725,
  "\u2581faveur": 4726,
  "my": 4727,
  "\u2581trait\u00e9": 4728,
  "\u2581Am\u00e9rica": 4729,
  "\u2581Environment": 4730,
  "\u2581felt": 4731,
  "\u2581strat\u00e9gie": 4732,
  "\u2581recognized": 4733,
  "\u2581growing": 4734,
  "\u2581sleep": 4735,
  "\u00eddo": 4736,
  "\u2581Inc": 4737,
  "ng": 4738,
  "AP": 4739,
  "\u2581audit": 4740,
  "\u2581cultura": 4741,
  "\u2581crea": 4742,
  "\u2581claim": 4743,
  "\u2581causes": 4744,
  "\u2581IT": 4745,
  "\u2581livre": 4746,
  "\u2581resultado": 4747,
  "\u2581centrale": 4748,
  "\u2581relativas": 4749,
  "\u2581goal": 4750,
  "tie": 4751,
  "CP": 4752,
  "\u2581lines": 4753,
  "\u2581raised": 4754,
  "\u2581stati": 4755,
  "ieron": 4756,
  "\u2581objeto": 4757,
  "\u2581expression": 4758,
  "\u2581p\u00fablica": 4759,
  "\u2581proposta": 4760,
  "\u2581Japan": 4761,
  "\u2581madre": 4762,
  "\u2581qu\u00ea": 4763,
  "lega": 4764,
  "\u2581imp": 4765,
  "58": 4766,
  "\u2581timp": 4767,
  "\u2581reuni\u00f3n": 4768,
  "\u2581thereof": 4769,
  "\u2581Bon": 4770,
  "57": 4771,
  "\u2581toate": 4772,
  "\u2581numbers": 4773,
  "\u2581King": 4774,
  "\u2581quelle": 4775,
  "ag": 4776,
  "\u2581statements": 4777,
  "\u2581\u00c7a": 4778,
  "\u2581critical": 4779,
  "\u2581fosse": 4780,
  "nde": 4781,
  "\u2581Room": 4782,
  "\u2581DES": 4783,
  "\u2581dedicated": 4784,
  "\u2581sala": 4785,
  "enti": 4786,
  "VI": 4787,
  "\u2581sessions": 4788,
  "\u2581dati": 4789,
  "\u2581consiste": 4790,
  "\u2581unos": 4791,
  "\u2581ore": 4792,
  "\u2581Black": 4793,
  "ld": 4794,
  "\u2581m\u00e3e": 4795,
  "Assembl\u00e9e": 4796,
  "\u00e3": 4797,
  "\u2581efectos": 4798,
  "serv": 4799,
  "\u2581hit": 4800,
  "\u2581sufficient": 4801,
  "\u2581responsabilit\u00e9": 4802,
  "\u2581Vice": 4803,
  "\u2581Van": 4804,
  "AS": 4805,
  "iza\u00e7\u00e3o": 4806,
  "\u2581rep": 4807,
  "\u2581starting": 4808,
  "\u2581permanente": 4809,
  "\u2581algunas": 4810,
  "\u2581Ontario": 4811,
  "\u00f6": 4812,
  "SA": 4813,
  "\u2581box": 4814,
  "\u2581disposition": 4815,
  "\u2581mari": 4816,
  "\u2581trouve": 4817,
  "\u2581equipo": 4818,
  "\u2581enhance": 4819,
  "\u2581variety": 4820,
  "\u2581mea": 4821,
  "\u2581gets": 4822,
  "\u2581instituciones": 4823,
  "\u2581Bed": 4824,
  "\u2581S\u00f3": 4825,
  "tent": 4826,
  "\u2581damage": 4827,
  "amiento": 4828,
  "56": 4829,
  "\u2581seul": 4830,
  "\u2581mass": 4831,
  "\u2581improving": 4832,
  "\u2581lu": 4833,
  "\u2581target": 4834,
  "\u2581Force": 4835,
  "\u2581Vo": 4836,
  "\u258153": 4837,
  "\u2581environ": 4838,
  "\u2581running": 4839,
  "\u2581tr\u00eas": 4840,
  "\u2581esfuerzos": 4841,
  "\u2581reading": 4842,
  "\u2581notice": 4843,
  "\u2581substance": 4844,
  "\u2581Vou": 4845,
  "vas": 4846,
  "C\u00f3mo": 4847,
  "\u2581fucking": 4848,
  "SP": 4849,
  "\u2581morte": 4850,
  "\u2581nem": 4851,
  "\u2581zonas": 4852,
  "\u2581nuevas": 4853,
  "\u2581utiliza": 4854,
  "v\u00e9": 4855,
  "\u2581priorities": 4856,
  "\u2581Dac\u0103": 4857,
  "\u2581ga": 4858,
  "toria": 4859,
  "\u2581poste": 4860,
  "\u2581clean": 4861,
  "\u2581\u00fanica": 4862,
  "\u2581commune": 4863,
  "\u2581programma": 4864,
  "53": 4865,
  "\u2581stuff": 4866,
  "hu": 4867,
  "\u2581figura": 4868,
  "\u2581Gracias": 4869,
  "\u2581OK": 4870,
  "\u2581indigenous": 4871,
  "isti": 4872,
  "\u2581Sunt": 4873,
  "\u2581bal": 4874,
  "nova": 4875,
  "\u2581contexto": 4876,
  "\u2581regi\u00f3n": 4877,
  "\u2581sociaux": 4878,
  "\u2581amigo": 4879,
  "76": 4880,
  "\u2581consulta": 4881,
  "\u2581author": 4882,
  "rate": 4883,
  "\u2581Ok": 4884,
  "\u2581promouvoir": 4885,
  "sto": 4886,
  "\u0163ia": 4887,
  "\u2581seem": 4888,
  "\u2581medios": 4889,
  "\u2581goals": 4890,
  "\u2581brand": 4891,
  "\u2581sales": 4892,
  "\u2581Trans": 4893,
  "\u2581possibile": 4894,
  "tele": 4895,
  "\u25812010,": 4896,
  "\u2581Ley": 4897,
  "\u2581poi": 4898,
  "\u2581attend": 4899,
  "\u2581instance": 4900,
  "UL": 4901,
  "\u2581customers": 4902,
  "ena": 4903,
  "ordre": 4904,
  "\u20ac": 4905,
  "\u2581territoire": 4906,
  "\u2581fixed": 4907,
  "\u2581dello": 4908,
  "91": 4909,
  "\u2581espera": 4910,
  "\u2581concluded": 4911,
  "\u2581dicho": 4912,
  "\u2581Madrid": 4913,
  "tation": 4914,
  "\u2581Sha": 4915,
  "!\"": 4916,
  "rem": 4917,
  "\u2581nuovo": 4918,
  "\u2581proportion": 4919,
  "Ha": 4920,
  "\u2581armes": 4921,
  "\u2581Post": 4922,
  "\u2581livello": 4923,
  "MP": 4924,
  "\u2581Qual": 4925,
  "int\u00e9r\u00eat": 4926,
  "\u00een": 4927,
  "\u2581soins": 4928,
  "\u2581Nel": 4929,
  "\u2581played": 4930,
  "care": 4931,
  "You": 4932,
  "\u2581comune": 4933,
  "\u2581lucha": 4934,
  "\u2581Show": 4935,
  "s\u00e3o": 4936,
  "\u00ef": 4937,
  "\u2581Port": 4938,
  "\u2581existence": 4939,
  "\u2581emergency": 4940,
  "\u2581repr\u00e9sentant": 4941,
  "\u2581secondo": 4942,
  "ST": 4943,
  "bal": 4944,
  "\u2581formas": 4945,
  "ology": 4946,
  "\u2581termes": 4947,
  "\u2581senhor": 4948,
  "ium": 4949,
  "\u2581\u00e9tudes": 4950,
  "side": 4951,
  "\u2581pass\u00e9": 4952,
  "\u2581hombres": 4953,
  "shi": 4954,
  "\u2581hai": 4955,
  "uff": 4956,
  "\u2581privind": 4957,
  "\u2581dif\u00edcil": 4958,
  "\u2581Price": 4959,
  "\u2581fast": 4960,
  "\u2581NO": 4961,
  "\u2581dias": 4962,
  "\u2581empleo": 4963,
  "g\u0103": 4964,
  "\u2581t\u00fa": 4965,
  "\u2581preciso": 4966,
  "cor": 4967,
  "\u2581usa": 4968,
  "\u2581instead": 4969,
  "\u2581fields": 4970,
  "\u2581entonces": 4971,
  "\u2581Green": 4972,
  "zer": 4973,
  "\u2581drink": 4974,
  "\u2581altre": 4975,
  "\u2581restaurant": 4976,
  "\u2581Number": 4977,
  "\u2581march\u00e9s": 4978,
  "79": 4979,
  "\u2581approximately": 4980,
  "\u2581Parte": 4981,
  "idades": 4982,
  "\u2581debt": 4983,
  "\u2581fund": 4984,
  "\u2581voice": 4985,
  "\u2581unto": 4986,
  "ep": 4987,
  "\u2581challenge": 4988,
  "\u2581communautaire": 4989,
  "\u2581error": 4990,
  "\u2581vedere": 4991,
  "\u2581estate": 4992,
  "\u2581Congo": 4993,
  "agit": 4994,
  "\u2581politica": 4995,
  "\u258177": 4996,
  "\u2581Fran\u00e7ais": 4997,
  "\u2581principe": 4998,
  "\u2581officials": 4999,
  "cina": 5000,
  "\u2581noche": 5001,
  "\u2581registered": 5002,
  "\u2581guerre": 5003,
  "\u2581abbiamo": 5004,
  "eri": 5005,
  "\u2581mention": 5006,
  "\u2581historia": 5007,
  "\u2581Chapter": 5008,
  "0,000": 5009,
  "\u2581grado": 5010,
  "\u2581kept": 5011,
  "\u2581producto": 5012,
  "lio": 5013,
  "\u2581vezes": 5014,
  "\u2581seek": 5015,
  "\u2581capacit\u00e9s": 5016,
  "\u2581Mal": 5017,
  "\u2581igual": 5018,
  "\u2581utiliser": 5019,
  "iques": 5020,
  "pul": 5021,
  "ane": 5022,
  "\u2581chiar": 5023,
  "\u2581fora": 5024,
  "\u2581tonight": 5025,
  "\u2581Cela": 5026,
  "tine": 5027,
  "\u2581mayor\u00eda": 5028,
  "\u2581perspective": 5029,
  "\u2581Thus": 5030,
  "\u2581claims": 5031,
  "\u258158": 5032,
  "\u2581actuellement": 5033,
  "\u2581sob": 5034,
  "\u2581stesso": 5035,
  "\u2581foarte": 5036,
  "\u2581petit": 5037,
  "1.": 5038,
  "vano": 5039,
  "\u2581info": 5040,
  "\u2581pourquoi": 5041,
  "\u2581directement": 5042,
  "\u2581intention": 5043,
  "izing": 5044,
  "\u2581unless": 5045,
  "\u2581vital": 5046,
  "\u2581sviluppo": 5047,
  "\u2581border": 5048,
  "\u2581sesi\u00f3n": 5049,
  "\u2581Bal": 5050,
  "\u2581containing": 5051,
  "\u2581abogados": 5052,
  "\u2581Review": 5053,
  "\u2581definition": 5054,
  "\u2581George": 5055,
  "xa": 5056,
  "\u2581negative": 5057,
  "l\u0103": 5058,
  "\u2581Ireland": 5059,
  "d\u0103": 5060,
  "\u2581components": 5061,
  "\u2581responsables": 5062,
  "\u2581t\u00eam": 5063,
  "\u2581Camp": 5064,
  "MI": 5065,
  "\u2581ONU": 5066,
  "\u2581Humanos": 5067,
  "\u2581difficile": 5068,
  "\u2581cidade": 5069,
  "san": 5070,
  "cou": 5071,
  "zzi": 5072,
  "fu": 5073,
  "\u2581invited": 5074,
  "\u2581co\u00fbt": 5075,
  "\u2581gaz": 5076,
  "entes": 5077,
  "2013": 5078,
  "\u2581violencia": 5079,
  "\u2581peso": 5080,
  "\u2581rendre": 5081,
  "\u2581partenaires": 5082,
  "\u2581destination": 5083,
  "sione": 5084,
  "\u2581mechanism": 5085,
  "\u25811999,": 5086,
  "\u2581Food": 5087,
  "examen": 5088,
  "\u2581pages": 5089,
  "mbi": 5090,
  "\u2581Find": 5091,
  "\u258159": 5092,
  "\u2581Mary": 5093,
  "\u2581dur\u00e9e": 5094,
  "\u2581pol": 5095,
  "\u2581obtenir": 5096,
  "\u2581varia": 5097,
  "uta": 5098,
  "\u2581lose": 5099,
  "\u2581Ph": 5100,
  "\u2581Fu": 5101,
  "\u2581Anti": 5102,
  "LA": 5103,
  "\u2581character": 5104,
  "\u2581Brussels": 5105,
  "\u2581suivants": 5106,
  "\u2581temos": 5107,
  "\u2581Latin": 5108,
  "\u2581arte": 5109,
  "hor": 5110,
  "\u2581Regulations": 5111,
  "entre": 5112,
  "\u2581Fonds": 5113,
  "\u2581pueblo": 5114,
  "har": 5115,
  "all": 5116,
  "ON": 5117,
  "\u2581highest": 5118,
  "\u2581w": 5119,
  "\u2581\u00c1frica": 5120,
  "rent": 5121,
  "FR": 5122,
  "\u2581pass": 5123,
  "ap": 5124,
  "\u2581wood": 5125,
  "feri": 5126,
  "\u00e1s": 5127,
  "\u2581Foi": 5128,
  "\u2581juridique": 5129,
  "\u2581permit": 5130,
  "\u2581estimated": 5131,
  "\u2581equality": 5132,
  "\u2581verdad": 5133,
  "\u2581king": 5134,
  "rios": 5135,
  "\u2581ja": 5136,
  "dro": 5137,
  "Do": 5138,
  "\u2581400": 5139,
  "\u2581yes": 5140,
  "\u2581exploitation": 5141,
  "\u2581Members": 5142,
  "gie": 5143,
  "\u2581Miss": 5144,
  "\u2581financi\u00e8re": 5145,
  "\u2581niveaux": 5146,
  "\u2581julio": 5147,
  "\u2581conclu": 5148,
  "\u2581travers": 5149,
  "\u2581moral": 5150,
  "\u2581danger": 5151,
  "61": 5152,
  "\u2581utilisation": 5153,
  "\u2581offices": 5154,
  "objet": 5155,
  "\u2581waiting": 5156,
  "\u2581observa": 5157,
  "\u2581chef": 5158,
  "si\u00f3n": 5159,
  "\u2581proprio": 5160,
  "fort": 5161,
  "\u2581r\u00e9duire": 5162,
  "nts": 5163,
  "\u2581suoi": 5164,
  "\u2581Furthermore": 5165,
  "\u2581exp": 5166,
  "\u2581Cam": 5167,
  "\u2581garantizar": 5168,
  "\u2581improved": 5169,
  "uda": 5170,
  "PA": 5171,
  "\u2581voy": 5172,
  "lho": 5173,
  "\u2581click": 5174,
  "\u2581Del": 5175,
  "\u2581intervention": 5176,
  "Es": 5177,
  "industrie": 5178,
  "\u2581sud": 5179,
  "\u2581environnement": 5180,
  "-5": 5181,
  "iro": 5182,
  "\u2581tard": 5183,
  "ans": 5184,
  "\u2581suivant": 5185,
  "lli": 5186,
  "\u2581terre": 5187,
  "\u2581degree": 5188,
  "\u2581rental": 5189,
  "\u2581r\u00e9alisation": 5190,
  "\u2581conseguir": 5191,
  "\u2581respective": 5192,
  "\u2581Etats": 5193,
  "\u2581easily": 5194,
  "\u2581euros": 5195,
  "\u2581mainly": 5196,
  "\u2581citt\u00e0": 5197,
  "\u2581numero": 5198,
  "\u2581nuevos": 5199,
  "\u2581lorsqu": 5200,
  "\u2581promover": 5201,
  "mu": 5202,
  "\u2581Project": 5203,
  "tec": 5204,
  "\u2581Comunit\u00e0": 5205,
  "\u2581cuanto": 5206,
  "\u2581precios": 5207,
  "\u2581s\u00e9ance": 5208,
  "\u2581begin": 5209,
  "ther": 5210,
  "\u2581partnership": 5211,
  "administration": 5212,
  "\u2581breakfast": 5213,
  "\u2581Real": 5214,
  "nha": 5215,
  "\u2581concert": 5216,
  "\u2581pr\u00e9senter": 5217,
  "\u2581experiencia": 5218,
  "ute": 5219,
  "\u2581fase": 5220,
  "\u2581secretariat": 5221,
  "\u2581Apr\u00e8s": 5222,
  "\u2581periodo": 5223,
  "\u2581Tell": 5224,
  "\u2581statistics": 5225,
  "\u2581London": 5226,
  "\u2581daughter": 5227,
  "\u2581pasado": 5228,
  "\u00ec": 5229,
  "una": 5230,
  "\u2581obtain": 5231,
  "pond": 5232,
  "qu": 5233,
  "app": 5234,
  "t\u00e0": 5235,
  "dica": 5236,
  "just": 5237,
  "related": 5238,
  "\u2581servizi": 5239,
  "sis": 5240,
  "\u2581\u00e9valuation": 5241,
  "\u2581octubre": 5242,
  "\u2581Agora": 5243,
  "\u2581educational": 5244,
  "rai": 5245,
  "\u2581tratamiento": 5246,
  "\u2581Palestinian": 5247,
  "\u2581Bel": 5248,
  "\u2581island": 5249,
  "88": 5250,
  "\u2581demandes": 5251,
  "\u2581composition": 5252,
  "\u2581internationaux": 5253,
  "\u2581\u201e": 5254,
  "\u2581arreglo": 5255,
  "\u2581r\u00e9ponse": 5256,
  "PC": 5257,
  "\u2581Wa": 5258,
  "\u2581replaced": 5259,
  "73": 5260,
  "\u2581VIH": 5261,
  "stin": 5262,
  "\u2581evaluaci\u00f3n": 5263,
  "100": 5264,
  "\u2581Europeo": 5265,
  "\u2581econ\u00f3mica": 5266,
  "\u2581resulting": 5267,
  "\u2581Super": 5268,
  "\u2581indiqu\u00e9": 5269,
  "\u0103m": 5270,
  "\u2581legislative": 5271,
  "\u2581forget": 5272,
  "3)": 5273,
  "\u2581Sou": 5274,
  "ore": 5275,
  "\u2581Fra": 5276,
  "\u2581parmi": 5277,
  "\u258195": 5278,
  "\u2581bri": 5279,
  "\u2581Breakfast": 5280,
  "\u2581Mont": 5281,
  "\u2581texto": 5282,
  "\u2581entrada": 5283,
  "rant": 5284,
  "\u25812005.": 5285,
  "\u2581fear": 5286,
  "\u2581supposed": 5287,
  "vu": 5288,
  "\u2581appear": 5289,
  "\u2581anterior": 5290,
  "\u258111.": 5291,
  "\u2581\u00faltimos": 5292,
  "\u2581J\u00e1": 5293,
  "\u2581leader": 5294,
  "\u2581compensation": 5295,
  "este": 5296,
  "vert": 5297,
  "\u2581Colombia": 5298,
  "\u2581ricerca": 5299,
  "\u2581church": 5300,
  "\u2581undertaken": 5301,
  "\u2581pense": 5302,
  "\u2581gotta": 5303,
  "fra": 5304,
  "\u2581green": 5305,
  "\u2581developments": 5306,
  "\u2581sitio": 5307,
  "\u2581reality": 5308,
  "\u2581Finally": 5309,
  "ors": 5310,
  "This": 5311,
  "\u2581cities": 5312,
  "\u2581deep": 5313,
  "\u2581classe": 5314,
  "var": 5315,
  "ped": 5316,
  "\u2581mente": 5317,
  "\u2581Martin": 5318,
  "\u2581continues": 5319,
  "\u2581publics": 5320,
  "\u2581eight": 5321,
  "\u2581noviembre": 5322,
  "\u2581maintien": 5323,
  "\u2581seguro": 5324,
  "\u2581junto": 5325,
  "ologie": 5326,
  "\u2581Ahora": 5327,
  "\u2581finally": 5328,
  "\u2581piano": 5329,
  "ono": 5330,
  "\u2581f\u00e1cil": 5331,
  "\u2581Water": 5332,
  "ella": 5333,
  "\u2581Holy": 5334,
  "\u2581fim": 5335,
  "\u2581presidente": 5336,
  "\u2581opened": 5337,
  "bas": 5338,
  "\u2581Jack": 5339,
  "\u2581Star": 5340,
  "\u2581ao\u00fbt": 5341,
  "\u2581networks": 5342,
  "bel": 5343,
  "\u2581presupuesto": 5344,
  "\u2581diz": 5345,
  "\u2581lawyers": 5346,
  "\u2581invita": 5347,
  "\u2581rise": 5348,
  "\u2581Estamos": 5349,
  "\u2581sar\u00e0": 5350,
  "\u2581estudo": 5351,
  "ye": 5352,
  "\u2581recovery": 5353,
  "\u2581prodotto": 5354,
  "und": 5355,
  "\u00e1ria": 5356,
  "\u2581dated": 5357,
  "\u2581effectively": 5358,
  "t\u00e1": 5359,
  "\u2581Design": 5360,
  "han": 5361,
  "\u2581\u00bb.": 5362,
  "\u2581vraiment": 5363,
  "\u2581Today": 5364,
  "\u2581affect": 5365,
  "ect": 5366,
  "\u2581accounts": 5367,
  "Com": 5368,
  "\u2581fini": 5369,
  "RI": 5370,
  "\u2581Meeting": 5371,
  "\u2581limita": 5372,
  "\u2581storage": 5373,
  "ranno": 5374,
  "\u2581shit": 5375,
  "\u2581Regulamento": 5376,
  "\u2581picture": 5377,
  "\u2581governments": 5378,
  "\u25812011,": 5379,
  "\u2581thousands": 5380,
  "\u2581statut": 5381,
  "\u2581dalle": 5382,
  "\u2581quiero": 5383,
  "\u2581organizaci\u00f3n": 5384,
  "\u2581charges": 5385,
  "\u2581documentation": 5386,
  "iz": 5387,
  "rup": 5388,
  "\u2581advance": 5389,
  "\u2581Voir": 5390,
  "\u2581n\u00e9cessit\u00e9": 5391,
  "\u2581destruction": 5392,
  "nico": 5393,
  "\u2581produtos": 5394,
  "84": 5395,
  "\u2581septiembre": 5396,
  "\u2581ailleurs": 5397,
  "\u2581dup\u0103": 5398,
  "\u2581amigos": 5399,
  "\u2581ten\u00eda": 5400,
  "ttes": 5401,
  "\u25812012,": 5402,
  "\u2581Financial": 5403,
  "\u2581outras": 5404,
  "ace": 5405,
  "\u2581efficient": 5406,
  "\u2581gouvernements": 5407,
  "\u2581Eso": 5408,
  "\u2581elementos": 5409,
  "\u2581ofrece": 5410,
  "\u2581nombreuses": 5411,
  "\u2581altro": 5412,
  "\u2581\u00eentr": 5413,
  "\u2581pul": 5414,
  "\u2581institutional": 5415,
  "\u00edan": 5416,
  "cat": 5417,
  "\u2581hoje": 5418,
  "\u2581Bas": 5419,
  "\u2581Salvador": 5420,
  "\u2581honor": 5421,
  "glio": 5422,
  "\u2581analyse": 5423,
  "poli": 5424,
  "eira": 5425,
  "\u2581Brasil": 5426,
  "\u2581respuesta": 5427,
  "\u2581cri": 5428,
  "\u2581voie": 5429,
  "\u2581kitchen": 5430,
  "\u2581venir": 5431,
  "\u2581virtud": 5432,
  "rais": 5433,
  "\u2581Russia": 5434,
  "\u2581necesita": 5435,
  "jan": 5436,
  "71": 5437,
  "\u2581edad": 5438,
  "mat": 5439,
  "\u2581constitue": 5440,
  "72": 5441,
  "\u2581element": 5442,
  "\u2581annex": 5443,
  "\u2581Kosovo": 5444,
  "\u2581lequel": 5445,
  "kin": 5446,
  "\u25811980": 5447,
  "\u2581rapide": 5448,
  "TI": 5449,
  "\u2581prepare": 5450,
  "\u2581Partes": 5451,
  "\u2581claro": 5452,
  "\u2581tus": 5453,
  "\u2581voyage": 5454,
  "gin": 5455,
  "\u2581Back": 5456,
  "\u2581changements": 5457,
  "gg": 5458,
  "2005": 5459,
  "\u2581pr\u00e9sent\u00e9": 5460,
  "\u2581earlier": 5461,
  "n\u00e9s": 5462,
  "bon": 5463,
  "\u258161": 5464,
  "\u25812006.": 5465,
  "\u2581pueda": 5466,
  "cional": 5467,
  "\u2581White": 5468,
  "\u2581miembro": 5469,
  "\u2581entered": 5470,
  "\u2581discussed": 5471,
  "\u2581t\u00e9cnica": 5472,
  "\u2581fre": 5473,
  "\u2581performed": 5474,
  "\u2581pr\u00e9vention": 5475,
  "\u2581examine": 5476,
  "\u2581drugs": 5477,
  "\u2581Moreover": 5478,
  "\u2581Luxembourg": 5479,
  "\u2581fam\u00edlia": 5480,
  "Te": 5481,
  "\u2581duties": 5482,
  "\u2581cuatro": 5483,
  "\u2581scale": 5484,
  "\u2581hablar": 5485,
  "\u2581d\u00e9bat": 5486,
  "\u2581quindi": 5487,
  "\u2581transmission": 5488,
  "din": 5489,
  "\u2581crear": 5490,
  "\u2581device": 5491,
  "rme": 5492,
  "\u2581secteurs": 5493,
  "\u2581eye": 5494,
  "\u00e9r\u00e9": 5495,
  "\u2581Hotels": 5496,
  "bio": 5497,
  "nic": 5498,
  "\u2581choix": 5499,
  "\u2581Land": 5500,
  "\u2581conf\u00e9rence": 5501,
  "\u2581sulle": 5502,
  "\u2581fuel": 5503,
  "\u2581norme": 5504,
  "\u2581summer": 5505,
  "\u2581enfant": 5506,
  "\u2581SE": 5507,
  "\u2581Foreign": 5508,
  "\u2581trouble": 5509,
  "\u2581represent": 5510,
  "\u2581FOR": 5511,
  "\u2581travailleurs": 5512,
  "bes": 5513,
  "\u2581rece": 5514,
  "\u2581length": 5515,
  "\u2581satisfaction": 5516,
  "\u2581links": 5517,
  "\u2581contexte": 5518,
  "\u2581airport": 5519,
  "\u2581supporting": 5520,
  "\u2581d\u00e9terminer": 5521,
  "\u2581Twitter": 5522,
  "63": 5523,
  "\u2581appui": 5524,
  "\u2581married": 5525,
  "\u2581relacionados": 5526,
  "\u2581cargo": 5527,
  "\u2581advantage": 5528,
  "\u2581S\u00e3o": 5529,
  "=": 5530,
  "\u2581whatever": 5531,
  "\u2581Media": 5532,
  "\u2581powers": 5533,
  "\u2581select": 5534,
  "uch": 5535,
  "\u2581favour": 5536,
  "-10": 5537,
  "\u2581hab\u00edan": 5538,
  "\u2581Desde": 5539,
  "\u2581Austria": 5540,
  "\u25812007.": 5541,
  "\u2581Joint": 5542,
  "\u2581Michael": 5543,
  "RO": 5544,
  "bul": 5545,
  "\u2581names": 5546,
  "\u2581shared": 5547,
  "\u2581trial": 5548,
  "ral": 5549,
  "\u2581convention": 5550,
  "\u2581commitments": 5551,
  "\u2581nord": 5552,
  "\u2581muchas": 5553,
  "\u2581Monte": 5554,
  "pha": 5555,
  "83": 5556,
  "\u2581pensar": 5557,
  "\u2581Netherlands": 5558,
  "\u2581Top": 5559,
  "\u2581outra": 5560,
  "\u2581attack": 5561,
  "\u2581adem\u00e1s": 5562,
  "\u2581leaders": 5563,
  "\u2581percent": 5564,
  "\u2581oral": 5565,
  "\u2581Nueva": 5566,
  "\u2581birth": 5567,
  "\u2581resto": 5568,
  "\u2581registration": 5569,
  "IA": 5570,
  "press": 5571,
  "mun": 5572,
  "\u2581hotels": 5573,
  "sor": 5574,
  "\u2581Organizaci\u00f3n": 5575,
  "\u2581worry": 5576,
  "\u2581graves": 5577,
  "erie": 5578,
  "\u2581totale": 5579,
  "\u2581gastos": 5580,
  "\u2581amplia": 5581,
  "mal": 5582,
  "\u2581telles": 5583,
  "\u2581Pra": 5584,
  "\u2581Main": 5585,
  "\u2581leaving": 5586,
  "\u2581comp": 5587,
  "colo": 5588,
  "ub": 5589,
  "cco": 5590,
  "\u2581siendo": 5591,
  "dad": 5592,
  "\u2581Civil": 5593,
  "\u2581Over": 5594,
  "inha": 5595,
  "\u2581showed": 5596,
  "\u2581Mag": 5597,
  "\u258112.": 5598,
  "PR": 5599,
  "tiques": 5600,
  "\u2581limite": 5601,
  "ffer": 5602,
  "dri": 5603,
  "e\u015fte": 5604,
  "\u2581violation": 5605,
  "at\u0103": 5606,
  "\u2581Last": 5607,
  "\u2581traffic": 5608,
  "cept": 5609,
  "\u00e9ducation": 5610,
  "del": 5611,
  "\u2581feeling": 5612,
  "\u2581impossible": 5613,
  "\u2581Gran": 5614,
  "red": 5615,
  "\u2581segunda": 5616,
  "\u2581algu\u00e9m": 5617,
  "\u2581Sei": 5618,
  "\")": 5619,
  "\u2581playing": 5620,
  "\u2581characteristics": 5621,
  "\u2581Afrique": 5622,
  "\u2581p\u00e1gina": 5623,
  "\u2581kid": 5624,
  "\u2581spune": 5625,
  "\u2581com\u00fan": 5626,
  "\u2581ori": 5627,
  "\u2581enforcement": 5628,
  "\u2581failure": 5629,
  "\u2581recognition": 5630,
  "\u2581cold": 5631,
  "\u00e9nergie": 5632,
  "\u2581creaci\u00f3n": 5633,
  "\u2581polic\u00eda": 5634,
  "\u2581Quem": 5635,
  "\u2581complet": 5636,
  "\u2581treated": 5637,
  "\u2581pop": 5638,
  "\u2581salle": 5639,
  "\u2581IP": 5640,
  "avoir": 5641,
  "anno": 5642,
  "\u2581bathroom": 5643,
  "ias": 5644,
  "\u2581Work": 5645,
  "\u2581derni\u00e8res": 5646,
  "\u2581Durante": 5647,
  "\u2581m\u00e9dico": 5648,
  "\u2581organismos": 5649,
  "\u2581Charter": 5650,
  "\u2581settore": 5651,
  "\u2581exige": 5652,
  "ical": 5653,
  "pp": 5654,
  "pie": 5655,
  "\u2581p\u00eache": 5656,
  "\u2581telle": 5657,
  "\u2581juego": 5658,
  "\u2581beach": 5659,
  "\u2581pure": 5660,
  "\u2581write": 5661,
  "ised": 5662,
  "ind": 5663,
  "\u2581quale": 5664,
  "Lo": 5665,
  "\u2581accommodation": 5666,
  "\u2581otherwise": 5667,
  "\u2581carta": 5668,
  "enda": 5669,
  "almente": 5670,
  "\u2581dinero": 5671,
  "\u2581closed": 5672,
  "\u2581stability": 5673,
  "\u2581draw": 5674,
  "74": 5675,
  "\u2581conflit": 5676,
  "\u2581\u00e1": 5677,
  "\u2581ban": 5678,
  "tch": 5679,
  "\u2581formaci\u00f3n": 5680,
  "\u2581Pourquoi": 5681,
  "\u2581Pode": 5682,
  "\u2581possibilit\u00e9": 5683,
  "cie": 5684,
  "\u2581appel": 5685,
  "52": 5686,
  "\u2581attivit\u00e0": 5687,
  "Co": 5688,
  "\u00e9n": 5689,
  "\u2581Museum": 5690,
  "\u2581imports": 5691,
  "tim": 5692,
  "\u2581Representative": 5693,
  "\u2581outcome": 5694,
  "\u2581sa\u00fade": 5695,
  "\u2581tenemos": 5696,
  "\u2581informa\u00e7\u00f5es": 5697,
  "rou": 5698,
  "\u2581langue": 5699,
  "\u2581evitar": 5700,
  "\u2581equipped": 5701,
  "\u2581territorio": 5702,
  "\u2581officers": 5703,
  "\u2581associations": 5704,
  "\u2581Stato": 5705,
  "\u2581d\u00e9cid\u00e9": 5706,
  "ney": 5707,
  "\u2581exigences": 5708,
  "\u2581Sign": 5709,
  "\u2581dimension": 5710,
  "\u2581ur": 5711,
  "2011": 5712,
  "\"?": 5713,
  "\u2581improvement": 5714,
  "euse": 5715,
  "\u2581principale": 5716,
  "level": 5717,
  "\u2581Eles": 5718,
  "\u2581recommendation": 5719,
  "COM": 5720,
  "over": 5721,
  "\u2581plants": 5722,
  "ob": 5723,
  "\u2581Play": 5724,
  "\u2581rapid": 5725,
  "\u2581passage": 5726,
  "\u2581fonctions": 5727,
  "\u2581Meu": 5728,
  "\u2581sun": 5729,
  "cida": 5730,
  "responsibilities": 5731,
  "\u2581join": 5732,
  "\u2581nation": 5733,
  "lie": 5734,
  "bol": 5735,
  "\u2581int\u00e9rieur": 5736,
  "\u2581regulatory": 5737,
  "\u2581Robert": 5738,
  "\u2581toma": 5739,
  "\u2581fort": 5740,
  "\u2581clientes": 5741,
  "\u2581utilis\u00e9": 5742,
  "\u2581consequences": 5743,
  "\u2581considerable": 5744,
  "\u2581propuesta": 5745,
  "\u2581Authority": 5746,
  "\u2581models": 5747,
  "\u2581quant": 5748,
  "\u2581terrorism": 5749,
  "organisation": 5750,
  "\u2581Obrigado": 5751,
  "\u2581acu": 5752,
  "\u2581elections": 5753,
  "\u2581r\u00e9pondre": 5754,
  "\u2581Year": 5755,
  "\u2581UNICEF": 5756,
  "\u2581lograr": 5757,
  "tivas": 5758,
  "\u258162": 5759,
  "\u2581pelos": 5760,
  "\u2581creating": 5761,
  "\u258101": 5762,
  "mini": 5763,
  "\u2581trafficking": 5764,
  "\u2581semi": 5765,
  "\u2581portant": 5766,
  "sco": 5767,
  "\u2581hizo": 5768,
  "\u2581Ze": 5769,
  "\u2581ship": 5770,
  "\u2581faci": 5771,
  "\u2581Ou": 5772,
  "TC": 5773,
  "\u2581funci\u00f3n": 5774,
  "\u2581dado": 5775,
  "\u2581planned": 5776,
  "\u2581Toutefois": 5777,
  "\u2581r\u00e9unions": 5778,
  "\u2581emissions": 5779,
  "\u2581victimes": 5780,
  "\u2581Advisory": 5781,
  "\u2581100%": 5782,
  "\u2581alguma": 5783,
  "\u021bia": 5784,
  "\u2581club": 5785,
  "\u2581Guide": 5786,
  "\u2581Dan": 5787,
  "tern": 5788,
  "\u2581cama": 5789,
  "\u2581op": 5790,
  "\u2581Airport": 5791,
  "\u2581fez": 5792,
  "\u2581certainly": 5793,
  "PE": 5794,
  "\u2581anal": 5795,
  "\u2581hemos": 5796,
  "Uni": 5797,
  "dul": 5798,
  "\u2581establecer": 5799,
  "\u2581navigation": 5800,
  "ssent": 5801,
  "sci": 5802,
  "elor": 5803,
  "\u25811988": 5804,
  "\u2581mayo": 5805,
  "\u2581payments": 5806,
  "\u2581sentir": 5807,
  "\u2581Island": 5808,
  "governmental": 5809,
  "\u2581touch": 5810,
  "\u2581conseil": 5811,
  "\u2581cash": 5812,
  "\u2581agriculture": 5813,
  "\u2581d\u00e8s": 5814,
  "\u25812)": 5815,
  "\u2581Legal": 5816,
  "\u2581llevar": 5817,
  "\u00e8ne": 5818,
  "\u2581studio": 5819,
  "\u2581pourraient": 5820,
  "\u2581devem": 5821,
  "\u2581differences": 5822,
  "enne": 5823,
  "\u2581haute": 5824,
  "\u2581directives": 5825,
  "\u2581ea": 5826,
  "entreprise": 5827,
  "\u2581holding": 5828,
  "\u2581stress": 5829,
  "\u2581duas": 5830,
  "c\u00f3": 5831,
  "\u2581concentration": 5832,
  "\u2581Western": 5833,
  "pla": 5834,
  "\u2581formula": 5835,
  "\u2581amounts": 5836,
  "\u2581exact": 5837,
  "\u2581H\u00e1": 5838,
  "\u2581Once": 5839,
  "\u25811987": 5840,
  "mie": 5841,
  "f\u00e9r": 5842,
  "\u2581virus": 5843,
  "\u2581district": 5844,
  "\u2581pur": 5845,
  "struc": 5846,
  "\u2581capable": 5847,
  "\u2581sull": 5848,
  "plo": 5849,
  "entr\u00e9e": 5850,
  "\u2581famous": 5851,
  "\u2581seis": 5852,
  "\u2581pr\u00e1ctica": 5853,
  "lip": 5854,
  "\u2581sicurezza": 5855,
  "\u2581gi\u00e0": 5856,
  "\u2581recours": 5857,
  "\u2581\u00b0": 5858,
  "\u2581invite": 5859,
  "\u2581Pot": 5860,
  "\u2581tenir": 5861,
  "\u2581ml": 5862,
  "\u2581Comunidad": 5863,
  "\u2581customs": 5864,
  "AD": 5865,
  "\u2581soy": 5866,
  "sch": 5867,
  "mit": 5868,
  "\u2581diverse": 5869,
  "\u2581indicators": 5870,
  "making": 5871,
  "\u2581resource": 5872,
  "\u2581records": 5873,
  "\u2581varios": 5874,
  "\u2581largest": 5875,
  "\u2581rend": 5876,
  "\u2581consistent": 5877,
  "\u2581biens": 5878,
  "iendo": 5879,
  "\u2581categories": 5880,
  "\u2581crucial": 5881,
  "ip": 5882,
  "://": 5883,
  "4,": 5884,
  "\u2581effectiveness": 5885,
  "\u2581caract\u00e8re": 5886,
  "\u2581meio": 5887,
  "rit": 5888,
  "\u2581nostra": 5889,
  "\u2581Ke": 5890,
  "\u2581restrictions": 5891,
  "\u2581tipos": 5892,
  "origine": 5893,
  "\u2581aver": 5894,
  "\u2581turned": 5895,
  "\u2581$1": 5896,
  "ghi": 5897,
  "\u2581percentage": 5898,
  "\u2581River": 5899,
  "\u2581LE": 5900,
  "\u2581respond": 5901,
  "agem": 5902,
  "\u2581aspectos": 5903,
  "sk": 5904,
  "IL": 5905,
  "\u2581Listen": 5906,
  "\u2581Fondo": 5907,
  "\u2581conservation": 5908,
  "\u2581Bri": 5909,
  "util": 5910,
  "\u2581machines": 5911,
  "\u2581voc\u00eas": 5912,
  "\u2581energ\u00eda": 5913,
  "\u2581passa": 5914,
  "\u2581emploi": 5915,
  "\u2581tierra": 5916,
  "\u2581suivantes": 5917,
  "\u2581proper": 5918,
  "\u2581libert\u00e9": 5919,
  "\u2581Cooperation": 5920,
  "\u2581moving": 5921,
  "\u2581participer": 5922,
  "Po": 5923,
  "tate": 5924,
  "annexe": 5925,
  "\u2581enero": 5926,
  "\u2581agent": 5927,
  "\u2581afraid": 5928,
  "\u2581involving": 5929,
  "\u2581leadership": 5930,
  "2001": 5931,
  "\u2581difficulties": 5932,
  "For": 5933,
  "\u2581san": 5934,
  "\u2581quella": 5935,
  "lica": 5936,
  "\u2581Hai": 5937,
  "\u2581convient": 5938,
  "\u2581motivo": 5939,
  "ima": 5940,
  "\u2581Selon": 5941,
  "\u2581department": 5942,
  "\u2581indicate": 5943,
  "\u2581podr\u00e1": 5944,
  "\u2581recomendaciones": 5945,
  "\u2581audio": 5946,
  "ilor": 5947,
  "\u2581Share": 5948,
  "\u2581Network": 5949,
  "\u2581Master": 5950,
  "\u2581store": 5951,
  "\u2581Ed": 5952,
  "RES": 5953,
  "\u2581modifica": 5954,
  "\u2581win": 5955,
  "\u2581explain": 5956,
  "Il": 5957,
  "\u2581aurait": 5958,
  "tain": 5959,
  "\u2581Tudo": 5960,
  "\u2581prime": 5961,
  "\u2581visits": 5962,
  "\u2581principios": 5963,
  "\u2581acha": 5964,
  "\u2581renforcement": 5965,
  "\u2581ECU": 5966,
  "\u2581exercice": 5967,
  "\u2581shot": 5968,
  "\u2581buena": 5969,
  "exercice": 5970,
  "b\u00e9": 5971,
  "\u2581Another": 5972,
  "\u2581modifications": 5973,
  "\u25812004.": 5974,
  "\u2581Auto": 5975,
  "\u2581primeira": 5976,
  "\u2581Frank": 5977,
  "i\u00f3": 5978,
  "ach": 5979,
  "\u2581bra": 5980,
  "\u2581street": 5981,
  "\u2581davantage": 5982,
  "\u2581consumer": 5983,
  "DO": 5984,
  "\u2581Bill": 5985,
  "\u2581Next": 5986,
  "\u2581implica": 5987,
  "\u2581tend": 5988,
  "\u2581mod\u00e8le": 5989,
  "ev": 5990,
  "corre": 5991,
  "\u2581Second": 5992,
  "\u2581passer": 5993,
  "\u2581linked": 5994,
  "\u2581libertad": 5995,
  "\u2581pick": 5996,
  "\u2581specifically": 5997,
  "\u2581ongoing": 5998,
  "\u2581paragraphs": 5999,
  "\u2581division": 6000,
  "\u2581alguns": 6001,
  "\u2581secure": 6002,
  "\u2581obtener": 6003,
  "\u2581multiple": 6004,
  "Membros": 6005,
  "\u2581annexe": 6006,
  "pend": 6007,
  "\u2581marine": 6008,
  "\u2581dem\u00e1s": 6009,
  "\u2581customer": 6010,
  "\u2581Energy": 6011,
  "\u2581appeal": 6012,
  "parti": 6013,
  "\u258172": 6014,
  "\u2581Pentru": 6015,
  "\u2581campaign": 6016,
  "\u2581guidance": 6017,
  "\u2581canal": 6018,
  "\u2581continuing": 6019,
  "cola": 6020,
  "62": 6021,
  "\u2581muerte": 6022,
  "\u25811986": 6023,
  "\u2581Club": 6024,
  "\u2581mandato": 6025,
  "\u2581autochtones": 6026,
  "\u25811998,": 6027,
  "\u2581fonctionnement": 6028,
  "porte": 6029,
  "\u2581ref": 6030,
  "\u2581garden": 6031,
  "\u2581notification": 6032,
  "\u2581Street": 6033,
  "\u2581multilateral": 6034,
  "mbra": 6035,
  "\u2581militar": 6036,
  "\u2581canadienne": 6037,
  "\u2581carga": 6038,
  "\u2581desenvolvimento": 6039,
  "ball": 6040,
  "\u2581Rio": 6041,
  "\u2581vo": 6042,
  "\u2581principaux": 6043,
  "ENT": 6044,
  "\u2581\u00bb,": 6045,
  "\u2581Chinese": 6046,
  "ists": 6047,
  "\u2581Tal": 6048,
  "\u2581Espa\u00f1ol": 6049,
  "\u2581reserva": 6050,
  "\u2581copy": 6051,
  "\u2581carne": 6052,
  "\u2581interesting": 6053,
  "rna": 6054,
  "\u2581consensus": 6055,
  "\u2581strength": 6056,
  "\u2581quadro": 6057,
  "\u2581..": 6058,
  "\u2581Power": 6059,
  "\u2581siamo": 6060,
  "ability": 6061,
  "2004": 6062,
  "\u25812008.": 6063,
  "\u2581\u00e9tabli": 6064,
  "\u2581mod": 6065,
  "uro": 6066,
  "c\u00eda": 6067,
  "\u2581tro": 6068,
  "\u2581s\u00fbr": 6069,
  "\u2581estudio": 6070,
  "\u2581dangerous": 6071,
  "\u2581dinheiro": 6072,
  "bit": 6073,
  "sp": 6074,
  "\u2581producers": 6075,
  "\u2581discuss": 6076,
  "ua": 6077,
  "\u2581gen": 6078,
  "\u2581abuse": 6079,
  "\u2581direttiva": 6080,
  "\u2581engagement": 6081,
  "\u2581middle": 6082,
  "\u2581documentos": 6083,
  "fir": 6084,
  "\u2581numa": 6085,
  "\u2581package": 6086,
  "\u2581interna": 6087,
  "\u2581fresh": 6088,
  "2002": 6089,
  "\u2581fut": 6090,
  "\u2581glass": 6091,
  "\u2581Reino": 6092,
  "\u2581120": 6093,
  "rti": 6094,
  "\u2581square": 6095,
  "\u2581piece": 6096,
  "MO": 6097,
  "\u2581informal": 6098,
  "Km": 6099,
  "2008": 6100,
  "\u2581flu": 6101,
  "rique": 6102,
  "board": 6103,
  "\u25811)": 6104,
  "\u2581released": 6105,
  "\u2581dejar": 6106,
  "\u2581aura": 6107,
  "\u2581canadien": 6108,
  "\u2581m\u00e9thodes": 6109,
  "\u2581host": 6110,
  "\u2581d\u00e9l\u00e9gation": 6111,
  "\u2581Mc": 6112,
  "\u2581sue": 6113,
  "\u2581posto": 6114,
  "\u2581contracts": 6115,
  "\u2581mono": 6116,
  "\u2581valores": 6117,
  "\u2581Does": 6118,
  "/10": 6119,
  "gos": 6120,
  "rin": 6121,
  "\u2581Center": 6122,
  "sign": 6123,
  "ware": 6124,
  "\u2581aff": 6125,
  "\u2581suficiente": 6126,
  "\u2581contain": 6127,
  "tens": 6128,
  "nous": 6129,
  "\u2581riesgo": 6130,
  "cin": 6131,
  "\u2581instructions": 6132,
  "glie": 6133,
  "\u2581semble": 6134,
  "\u2581fran\u00e7ais": 6135,
  "\u2581Criminal": 6136,
  "dura": 6137,
  "\u2581d\u00e9fense": 6138,
  "\u2581flight": 6139,
  "\u2581ahead": 6140,
  "\u2581reflect": 6141,
  "\u2581Spa": 6142,
  "/4": 6143,
  "stri": 6144,
  "\u2581\u00c9l": 6145,
  "\u2581scheme": 6146,
  "DR": 6147,
  "\u2581accident": 6148,
  "log": 6149,
  "trice": 6150,
  "\u2581Grande": 6151,
  "\u2581Up": 6152,
  "\u2581rela\u00e7\u00e3o": 6153,
  "cular": 6154,
  "vor": 6155,
  "2012": 6156,
  "\u25812013,": 6157,
  "\u2581Permanent": 6158,
  "\u2581vigor": 6159,
  "\u2581worth": 6160,
  "\u2581Tous": 6161,
  "\u2581Mai": 6162,
  "\u2581aplicar": 6163,
  "\u2581wall": 6164,
  "\u2581female": 6165,
  "\u2581modelo": 6166,
  "Organisation": 6167,
  "avi": 6168,
  "\u2581demander": 6169,
  "\u2581availability": 6170,
  "\u2581poly": 6171,
  "\u258166": 6172,
  "\u2581consumo": 6173,
  "\u2581terrain": 6174,
  "\u2581evening": 6175,
  "\u2581aspect": 6176,
  "\u2581instrumentos": 6177,
  "vision": 6178,
  "CR": 6179,
  "\u2581contrat": 6180,
  "\u2581aunque": 6181,
  "\u2581ponto": 6182,
  "\u2581acolo": 6183,
  "\u2581USA": 6184,
  "\u2581tiers": 6185,
  "\u2581esempio": 6186,
  "cial": 6187,
  "\u2581econ\u00f3mico": 6188,
  "\u2581temperature": 6189,
  "ski": 6190,
  "\u2581tali": 6191,
  "\u2581exception": 6192,
  "\u2581trova": 6193,
  "\u2581rich": 6194,
  "uso": 6195,
  "\u2581ajuda": 6196,
  "\u2581dad": 6197,
  "\u2581parler": 6198,
  "\u2581circa": 6199,
  "\u2581choses": 6200,
  "\u2581Trabajo": 6201,
  "\u2581window": 6202,
  "avis": 6203,
  "\u2581spread": 6204,
  "\u2581Geneva": 6205,
  "\u2581ejecuci\u00f3n": 6206,
  "\u2581entrar": 6207,
  "\u2581purchase": 6208,
  "\u2581teaching": 6209,
  "Mo": 6210,
  "\u2581afirma": 6211,
  "\u2581pena": 6212,
  "\u258188": 6213,
  "\u2581n\u00edvel": 6214,
  "ndi": 6215,
  "\u2581cell": 6216,
  "\u2581(3": 6217,
  "\u2581bases": 6218,
  "\u2581professionnelle": 6219,
  "ally": 6220,
  "\u2581protected": 6221,
  "\u2581delivered": 6222,
  "\u2581Federation": 6223,
  "\u2581Acho": 6224,
  "\u2581satellite": 6225,
  "\u2581Type": 6226,
  "\u2581informa": 6227,
  "\u258113.": 6228,
  "\u2581gracias": 6229,
  "\u2581Mark": 6230,
  "\u2581spun": 6231,
  "\u2581permettant": 6232,
  "\u2581gobierno": 6233,
  "\u2581Access": 6234,
  "bur": 6235,
  "pes": 6236,
  "\u2581sit": 6237,
  "\u2581Via": 6238,
  "PP": 6239,
  "\u2581durant": 6240,
  "\u2581priv\u00e9": 6241,
  "-6": 6242,
  "\u2581comply": 6243,
  "\u2581survey": 6244,
  "\u2581suppl\u00e9mentaires": 6245,
  "\u2581desea": 6246,
  "\u2581vive": 6247,
  "\u2581stakeholders": 6248,
  "\u2581bun": 6249,
  "\u2581bis": 6250,
  "\u2581limits": 6251,
  "\u2581housing": 6252,
  "ala": 6253,
  "\u2581Tenho": 6254,
  "zzo": 6255,
  "\u2581treaty": 6256,
  "\u2581combination": 6257,
  "\u2581Ac": 6258,
  "ense": 6259,
  "\u2581acho": 6260,
  "\u2581Transport": 6261,
  "\u2581cura": 6262,
  "\u2581forest": 6263,
  "vier": 6264,
  "\u2581str": 6265,
  "\u2581corps": 6266,
  "\u2581requirement": 6267,
  "\u2581financi\u00e8res": 6268,
  "\u2581financiers": 6269,
  "PI": 6270,
  "\u2581Before": 6271,
  "\u2581Sir": 6272,
  "\u2581Ter": 6273,
  "\u2581transactions": 6274,
  "dent": 6275,
  "\u2581llegar": 6276,
  "\u2581Switzerland": 6277,
  "\u2581referencia": 6278,
  "\u2581Ste": 6279,
  "nio": 6280,
  "\u2581blue": 6281,
  "\u2581offering": 6282,
  "iva": 6283,
  "tado": 6284,
  "An": 6285,
  "\u2581zi": 6286,
  "\u2581aller": 6287,
  "\u2581hurt": 6288,
  "\u2581milieu": 6289,
  "\u2581classification": 6290,
  "\u2581hijo": 6291,
  "\u2581Nothing": 6292,
  "\u2581Daniel": 6293,
  "\u2581car\u00e1cter": 6294,
  "\u2581spent": 6295,
  "\u2581Asta": 6296,
  "\u2581propres": 6297,
  "\u2581mantener": 6298,
  "\u2581extremely": 6299,
  "\u2581democratic": 6300,
  "\u2581ET": 6301,
  "\u2581Berlin": 6302,
  "II": 6303,
  "\u2581inter\u00e9s": 6304,
  "\u2581queste": 6305,
  "\u2581Friday": 6306,
  "\u021bie": 6307,
  "\u2581completo": 6308,
  "\u2581art\u00edculos": 6309,
  "2009": 6310,
  "\u2581gre": 6311,
  "yn": 6312,
  "\u2581rue": 6313,
  "\u2581Tour": 6314,
  "dessus": 6315,
  "\u2581drawn": 6316,
  "table": 6317,
  "\u2581Every": 6318,
  "\u2581fuck": 6319,
  "\u2581spiritual": 6320,
  "\u2581Chairman": 6321,
  "\u2581Min": 6322,
  "\u2581ratio": 6323,
  "\u2581season": 6324,
  "free": 6325,
  "\u2581manque": 6326,
  "hy": 6327,
  "istes": 6328,
  "nar": 6329,
  "sure": 6330,
  "\u2581se\u00f1or": 6331,
  "\u2581boys": 6332,
  "\u2581minist\u00e8re": 6333,
  "\u2581bag": 6334,
  "PS": 6335,
  "\u2581devices": 6336,
  "lant": 6337,
  "\u258198": 6338,
  "\u2581solid": 6339,
  "\u2581SA": 6340,
  "\u2581efecto": 6341,
  "\u2581extended": 6342,
  "\u2581revenu": 6343,
  "\u2581yeah": 6344,
  "\u2581cat": 6345,
  "\u2581sanctions": 6346,
  "\u2581fit": 6347,
  "\u2581Very": 6348,
  "\u2581seguran\u00e7a": 6349,
  "\u2581adoptar": 6350,
  "Di": 6351,
  "\u25811:": 6352,
  "nzi": 6353,
  "\u2581CN": 6354,
  "\u2581doubt": 6355,
  "eta": 6356,
  "m\u00eame": 6357,
  "\u2581Company": 6358,
  ".12": 6359,
  "\u2581aircraft": 6360,
  "\u2581Communication": 6361,
  "\u2581hearing": 6362,
  "\u2581d\u00e9clar\u00e9": 6363,
  "\u2581north": 6364,
  "\u2581atrav\u00e9s": 6365,
  "\u25811989": 6366,
  "\u2581aims": 6367,
  "\u00e4": 6368,
  "\u2581Afghanistan": 6369,
  "\u2581facile": 6370,
  "yo": 6371,
  "\u2581stable": 6372,
  "\u2581regionales": 6373,
  "\u2581crois": 6374,
  "\u2581pauvret\u00e9": 6375,
  "\u2581Membres": 6376,
  "OM": 6377,
  "\u2581introduction": 6378,
  "\u2581hu": 6379,
  "\u2581abril": 6380,
  "\u2581crit\u00e8res": 6381,
  "\u2581clinical": 6382,
  "\u2581moyenne": 6383,
  "\u2581objectif": 6384,
  "\u2581servi": 6385,
  "\u2581(\"": 6386,
  "\u2581ninguna": 6387,
  "\u2581relazione": 6388,
  "\u2581Turkey": 6389,
  "\u2581Online": 6390,
  "81": 6391,
  "TION": 6392,
  "\u2581refugees": 6393,
  "\u2581Help": 6394,
  "rre": 6395,
  "gy": 6396,
  "\u2581governance": 6397,
  "\u2581]": 6398,
  "\u2581path": 6399,
  "\u2581Trebuie": 6400,
  "LO": 6401,
  "\u2581grant": 6402,
  "\u2581publications": 6403,
  "\u2581album": 6404,
  "\u2581visite": 6405,
  "olo": 6406,
  "\u2581firms": 6407,
  "\u2581bilateral": 6408,
  "\u2581pollution": 6409,
  "matic": 6410,
  "DC": 6411,
  "\u2581decisiones": 6412,
  "\u2581mom": 6413,
  "\u2581parole": 6414,
  "\u2581Estoy": 6415,
  "\u2581feet": 6416,
  "\u2581busca": 6417,
  "OL": 6418,
  "\u2581recorded": 6419,
  "\u2581nuit": 6420,
  "\u2581temporary": 6421,
  "\u2581match": 6422,
  "\u2581president": 6423,
  "\u2581track": 6424,
  "\u021bii": 6425,
  "\u2581basa": 6426,
  "\u2581tradition": 6427,
  "\u2581relatif": 6428,
  "IE": 6429,
  "\u2581ap\u00f3s": 6430,
  "\u2581avere": 6431,
  "\u2581valeurs": 6432,
  "uk": 6433,
  "\u2581vivo": 6434,
  "\u2581Location": 6435,
  "\u2581south": 6436,
  "\u2581flow": 6437,
  "\u2581changement": 6438,
  "\u2581firm": 6439,
  "\u2581sigue": 6440,
  "\u2581dealing": 6441,
  "\u2581cuerpo": 6442,
  "\u2581flat": 6443,
  "\u2581moved": 6444,
  "\u2581Francia": 6445,
  "\u2581Best": 6446,
  "\u2581Cer": 6447,
  "\u2581mat\u00e9riel": 6448,
  "\u2581Royaume": 6449,
  "\u2581faible": 6450,
  "\u2581misure": 6451,
  "\u2581Greece": 6452,
  "\u2581despite": 6453,
  "\u2581M\u00e1s": 6454,
  "\u2581encuentra": 6455,
  "\u2581comp\u00e9tences": 6456,
  "\u258163": 6457,
  "remo": 6458,
  "\u2581hijos": 6459,
  "\u2581camino": 6460,
  "\u2581parking": 6461,
  "\u2581curso": 6462,
  "\u2581S\u0103": 6463,
  "\u2581boa": 6464,
  "\u2581tienes": 6465,
  "\u2581gal": 6466,
  "ves": 6467,
  "\u2581installation": 6468,
  "\u2581interno": 6469,
  "\u2581confidence": 6470,
  "\u2581installations": 6471,
  "\u2581puedes": 6472,
  "\u2581School": 6473,
  "\u2581raise": 6474,
  "\u2581Time": 6475,
  "\u258100": 6476,
  "\u2581Child": 6477,
  "ios": 6478,
  "rico": 6479,
  "\u2581M\u00e9": 6480,
  "\u2581entities": 6481,
  "\u2581Dia": 6482,
  "\u2581quien": 6483,
  "\u2581debido": 6484,
  "turi": 6485,
  "\u2581rapporteur": 6486,
  "ggia": 6487,
  "\u2581Venezuela": 6488,
  "\u2581experiences": 6489,
  "\u2581caf\u00e9": 6490,
  "\u2581propositions": 6491,
  "\u2581courses": 6492,
  "\u2581relatifs": 6493,
  "\u2581Cum": 6494,
  "\u2581ceea": 6495,
  ".1)": 6496,
  "\u2581threat": 6497,
  "dar": 6498,
  "ray": 6499,
  "\u2581explica": 6500,
  "\u2581amendment": 6501,
  "\u2581calling": 6502,
  "\u2581closely": 6503,
  "\u2581sito": 6504,
  "king": 6505,
  "\u2581Ali": 6506,
  "\u2581expect": 6507,
  "izado": 6508,
  "\u2581Life": 6509,
  "\u2581troisi\u00e8me": 6510,
  "appel": 6511,
  "\u2581operaciones": 6512,
  "\u2581engine": 6513,
  "\u2581N\u00f3s": 6514,
  "\u2581Alors": 6515,
  "\u2581continuer": 6516,
  "\u2581Wait": 6517,
  "DA": 6518,
  "cce": 6519,
  "nea": 6520,
  "\u2581tasks": 6521,
  "\u2581core": 6522,
  "cip": 6523,
  "peri": 6524,
  "\u2581legislaci\u00f3n": 6525,
  "\u2581condizioni": 6526,
  "\u2581gusta": 6527,
  "\u2581passed": 6528,
  "\u2581shopping": 6529,
  "\u2581broad": 6530,
  "\u2581PE": 6531,
  "aggio": 6532,
  "\u2581pesquisa": 6533,
  "\u2581lucru": 6534,
  "\u2581haciendo": 6535,
  "\u2581fel": 6536,
  "\u2581val": 6537,
  "aba": 6538,
  "\u2581happens": 6539,
  "Si": 6540,
  "\u2581r\u00e1pido": 6541,
  "\u2581ni\u00f1o": 6542,
  "\u2581Pat": 6543,
  "\u2581connected": 6544,
  "ius": 6545,
  "\u2581comunicaci\u00f3n": 6546,
  "ration": 6547,
  "\u2581mol": 6548,
  "lation": 6549,
  "oli": 6550,
  "dere": 6551,
  "rri": 6552,
  "\u2581finance": 6553,
  "\u2581democracy": 6554,
  "\u2581Earth": 6555,
  "work": 6556,
  "\u2581procedimiento": 6557,
  "\u2581victim": 6558,
  "\u2581sample": 6559,
  "building": 6560,
  "\u2581Io": 6561,
  "posit": 6562,
  "\u2581crise": 6563,
  "\u2581600": 6564,
  "\u2581browser": 6565,
  "lly": 6566,
  "ison": 6567,
  "\u2581enterprises": 6568,
  "\u2581obstacles": 6569,
  "\u2581appointed": 6570,
  "\u2581Avec": 6571,
  "\u2581concrete": 6572,
  "argent": 6573,
  "ncias": 6574,
  "\u2581nevoie": 6575,
  "\u2581Email": 6576,
  "\u2581unde": 6577,
  "500": 6578,
  "cteur": 6579,
  "\u2581Fin": 6580,
  "\u2581becomes": 6581,
  "itate": 6582,
  "\u2581asking": 6583,
  "\u2581dintre": 6584,
  "\u2581gold": 6585,
  "\u2581r\u00e9serve": 6586,
  "cchi": 6587,
  "\u2581lois": 6588,
  "\u2581connect": 6589,
  "He": 6590,
  "\u2581parent": 6591,
  "gem": 6592,
  "\u2581Android": 6593,
  "\u2581fondos": 6594,
  "\u2581coffee": 6595,
  "\u2581diseases": 6596,
  "\u2581j\u00f3venes": 6597,
  "Vi": 6598,
  "back": 6599,
  "2014": 6600,
  "\u2581sections": 6601,
  "\u2581importe": 6602,
  "point": 6603,
  "\u2581agosto": 6604,
  "\u2581Im": 6605,
  "\u2581Products": 6606,
  "mma": 6607,
  "\u00e2t": 6608,
  "\u2581launched": 6609,
  "pli": 6610,
  "\u2581succ\u00e8s": 6611,
  "\u2581Corte": 6612,
  "\u2581perhaps": 6613,
  "\u2581d\u00e9s": 6614,
  "\u2581sugar": 6615,
  "assurer": 6616,
  "\u25811997,": 6617,
  "imi": 6618,
  "Ex": 6619,
  "\u2581poner": 6620,
  "\u2581telling": 6621,
  "oma": 6622,
  "\u2581courts": 6623,
  "\u2581locale": 6624,
  "\u2581Bre": 6625,
  "\u2581examiner": 6626,
  "\u2581establecimiento": 6627,
  "\u258167": 6628,
  "\u2581provinces": 6629,
  "\u2581Panel": 6630,
  "\u2581sold": 6631,
  "\u2581alcuni": 6632,
  "\u2581facilitar": 6633,
  "\u2581Luc": 6634,
  "\u2581buildings": 6635,
  "\u2581concentra": 6636,
  "\u2581Iran": 6637,
  "\u2581Book": 6638,
  "\u2581Covenant": 6639,
  "\u2581meta": 6640,
  "moni": 6641,
  "activit\u00e9": 6642,
  "\u2581spend": 6643,
  "\u2581assess": 6644,
  "\u25812010.": 6645,
  "\u2581announced": 6646,
  "\u2581penal": 6647,
  "\u2581indeed": 6648,
  "\u2581mouth": 6649,
  "\u2581bord": 6650,
  "\u2581interne": 6651,
  "\u2581technologie": 6652,
  "\u2581p\u00e8re": 6653,
  "i\u00e8re": 6654,
  "\u2581organes": 6655,
  "\u2581Op": 6656,
  "\u2581representantes": 6657,
  "\u2581\u00e9tude": 6658,
  "ku": 6659,
  "\u2581pobreza": 6660,
  "\u2581suitable": 6661,
  "\u2581manage": 6662,
  "\u2581verso": 6663,
  "\u2581mostrar": 6664,
  "\u2581milk": 6665,
  "\u2581recon": 6666,
  "\u2581Bor": 6667,
  "\u2581Santo": 6668,
  "\u2581Miembros": 6669,
  "\u2581oficial": 6670,
  "\u015fti": 6671,
  "ken": 6672,
  "\u2581refer": 6673,
  "\u2581object": 6674,
  "mico": 6675,
  "\u2581postes": 6676,
  "\u2581Han": 6677,
  "old": 6678,
  "valu": 6679,
  "\u2581pensa": 6680,
  "\u258114.": 6681,
  "\u2581missing": 6682,
  "\u2581r\u00e9gional": 6683,
  "\u2581Max": 6684,
  "\u2581Roman": 6685,
  "igne": 6686,
  "ight": 6687,
  "\u2581cool": 6688,
  "OP": 6689,
  "\u2581express": 6690,
  "\u2581identity": 6691,
  "\u2581represented": 6692,
  "\u2581correspondiente": 6693,
  "iones": 6694,
  "\u2581jurisdiction": 6695,
  "\u2581Would": 6696,
  "\u2581File": 6697,
  "n\u0163\u0103": 6698,
  "\u2581chapitre": 6699,
  "\u2581Nunca": 6700,
  "\u2581categor\u00eda": 6701,
  "\u2581mini": 6702,
  "house": 6703,
  "\u2581appears": 6704,
  "\u25812003.": 6705,
  "\u2581num\u00e9ro": 6706,
  "\u2581sexo": 6707,
  "pot": 6708,
  "\u2581immediate": 6709,
  "\u2581preuve": 6710,
  "\u2581Sun": 6711,
  "\u2581define": 6712,
  "\u2581modification": 6713,
  "\u2581prova": 6714,
  "\u2581marriage": 6715,
  "\u2581comfort": 6716,
  "\u2581expertise": 6717,
  "\u2581Long": 6718,
  "\u2581an\u00e1lisis": 6719,
  "TER": 6720,
  "\u2581chat": 6721,
  "SO": 6722,
  "rma": 6723,
  "\u2581urgent": 6724,
  "EX": 6725,
  "\u2581dog": 6726,
  "\u2581contar": 6727,
  "\u2581messages": 6728,
  "iers": 6729,
  "OJ": 6730,
  "\u2581cose": 6731,
  "\u2581Ki": 6732,
  "Mi": 6733,
  "\u2581igualdad": 6734,
  "ien": 6735,
  "\u2581d\u00e9finition": 6736,
  "\u2581crazy": 6737,
  "82": 6738,
  "\u2581Administration": 6739,
  "\u2581pictures": 6740,
  "\u2581inspection": 6741,
  "lect": 6742,
  "\u2581pr\u00e1cticas": 6743,
  "\u2581archivo": 6744,
  "\u2581prot\u00e9ger": 6745,
  "\u2581c\u00f4t\u00e9": 6746,
  "l\u00ed": 6747,
  "\u2581historical": 6748,
  "\u2581accessible": 6749,
  "\u2581books": 6750,
  "1)": 6751,
  "\u2581ama": 6752,
  "\u2581detention": 6753,
  "\u00e2n": 6754,
  "\u2581Radio": 6755,
  "\u2581banks": 6756,
  "\u2581giorni": 6757,
  "\u2581entreprise": 6758,
  "\u2581formes": 6759,
  "\u2581raz\u00f3n": 6760,
  "\u2581citoyens": 6761,
  "\u2581avea": 6762,
  "\u2581neste": 6763,
  "\u2581provisoire": 6764,
  "\u2581faisant": 6765,
  "ites": 6766,
  "\u2581applicant": 6767,
  "\u2581rapidement": 6768,
  "\u2581nuova": 6769,
  "\u2581hate": 6770,
  "\u2581espacio": 6771,
  "\u2581corruption": 6772,
  "\u2581vice": 6773,
  "\u2581charg\u00e9": 6774,
  "lui": 6775,
  "OC": 6776,
  "\u2581Essa": 6777,
  "\u2581unui": 6778,
  "\u2581ch": 6779,
  "\u2581Their": 6780,
  "\u2581185": 6781,
  "\u2581250": 6782,
  "\u2581Local": 6783,
  "\u2581correspond": 6784,
  "\u25811985": 6785,
  "\u2581gouvernementale": 6786,
  "\u2581poss\u00edvel": 6787,
  "\u2581contenido": 6788,
  "\u2581coup": 6789,
  "\u2581mark": 6790,
  "\u2581\u00e1gua": 6791,
  "\u2581blog": 6792,
  "eth": 6793,
  "\u2581Photo": 6794,
  "sul": 6795,
  "\u2581lor": 6796,
  "\u2581confirmed": 6797,
  "\u2581Er": 6798,
  "\u2581relacionadas": 6799,
  "\u25812009.": 6800,
  "\u2581cuales": 6801,
  "\u2581employ\u00e9s": 6802,
  "\u2581puesto": 6803,
  "nch": 6804,
  "\u2581servi\u00e7os": 6805,
  "\u2581possa": 6806,
  "4)": 6807,
  "\u2581combined": 6808,
  "\u2581grounds": 6809,
  "\u2581illegal": 6810,
  "\u2581Fer": 6811,
  "but": 6812,
  "\u2581ci\u00f2": 6813,
  "\u2581innovative": 6814,
  "\u2581Cro": 6815,
  "\u25811996,": 6816,
  "\u2581financiaci\u00f3n": 6817,
  "\u2581completamente": 6818,
  "\u2581dark": 6819,
  "\u2581plut\u00f4t": 6820,
  "\u2581Spirit": 6821,
  "\u2581served": 6822,
  "bb": 6823,
  "\u2581determinar": 6824,
  "\u2581businesses": 6825,
  "\u2581Esse": 6826,
  "nom": 6827,
  "\u2581Communities": 6828,
  "\u2581Cependant": 6829,
  "\u2581veut": 6830,
  "\u2581Ram": 6831,
  "put": 6832,
  "\u2581\u00b7": 6833,
  "\u258193": 6834,
  "\u2581stations": 6835,
  "\u2581qualit\u00e0": 6836,
  "\u2581numerous": 6837,
  "\u2581alguien": 6838,
  "TO": 6839,
  "\u2581Chief": 6840,
  "mbar": 6841,
  ".10": 6842,
  "sas": 6843,
  "\u2581Ber": 6844,
  "\u2581approche": 6845,
  "\u00edvel": 6846,
  "\u2581derniers": 6847,
  "\u2581peuple": 6848,
  "\u2581Europeu": 6849,
  "\u2581sean": 6850,
  "\u2581reforma": 6851,
  "\u2581soci\u00e9t\u00e9s": 6852,
  "\u2581cliente": 6853,
  "\u2581seria": 6854,
  "\u2581learned": 6855,
  "\u2581Test": 6856,
  "\u2581sister": 6857,
  "\u2581dispose": 6858,
  "\u2581membro": 6859,
  "cade": 6860,
  "\u2581Live": 6861,
  "\u2581represents": 6862,
  "az": 6863,
  "\u2581sell": 6864,
  "\u2581(4)": 6865,
  "\u2581update": 6866,
  "\u2581luego": 6867,
  "\u2581forum": 6868,
  "tten": 6869,
  "\u2581vente": 6870,
  "4%": 6871,
  "\u2581faciliter": 6872,
  "\u2581star": 6873,
  "\u2581cou": 6874,
  "NO": 6875,
  "\u2581secr\u00e9tariat": 6876,
  "\u2581Police": 6877,
  "\u2581proteger": 6878,
  "zar": 6879,
  "\u2581mid": 6880,
  "\u2581Personal": 6881,
  "uv": 6882,
  "\u2581Depuis": 6883,
  "\u2581Give": 6884,
  ":30": 6885,
  "\u2581Cla": 6886,
  "ee": 6887,
  "\u2581mantenimiento": 6888,
  "\u2581procedimientos": 6889,
  "\u2581UK": 6890,
  "\u25811995,": 6891,
  "\u2581contribuer": 6892,
  "\u2581semaine": 6893,
  "\u2581ES": 6894,
  "\u258196": 6895,
  "\u2581structural": 6896,
  "\u2581participar": 6897,
  "\u2581remained": 6898,
  "www": 6899,
  "\u2581alguna": 6900,
  "v\u0103": 6901,
  "pl": 6902,
  "\u2581publiques": 6903,
  "\u2581previously": 6904,
  "\u2581norma": 6905,
  "\u2581pr\u00e9sence": 6906,
  "\u2581duration": 6907,
  "\u2581panel": 6908,
  "\u2581rispetto": 6909,
  "\u2581todav\u00eda": 6910,
  "\u2581residence": 6911,
  "analyse": 6912,
  "\u2581speaking": 6913,
  "\u2581posibilidad": 6914,
  "\u25812:": 6915,
  "\u2581consumers": 6916,
  "\u2581pregunta": 6917,
  "ures": 6918,
  "\u2581Summit": 6919,
  "\u2581meno": 6920,
  "ONU": 6921,
  "\u2581James": 6922,
  "\u2581Chile": 6923,
  "uto": 6924,
  "NE": 6925,
  "\u2581latter": 6926,
  "gal": 6927,
  "\u2581Sra": 6928,
  "\u2581Votre": 6929,
  "\u2581miss": 6930,
  "\u2581gri": 6931,
  "\u25812000.": 6932,
  "\u2581transit": 6933,
  "\u2581diverses": 6934,
  "\u2581fichier": 6935,
  "\u2581sp\u00e9ciale": 6936,
  "\u2581master": 6937,
  "veni": 6938,
  "\u2581cred": 6939,
  "r\u00ed": 6940,
  "\u2581sick": 6941,
  "\u2581examination": 6942,
  "\u2581reducing": 6943,
  "Office": 6944,
  "taria": 6945,
  "psi": 6946,
  "\u2581e\u015fti": 6947,
  "/1": 6948,
  "\u00e9tablissement": 6949,
  "\u2581Gen": 6950,
  "flu": 6951,
  "\u2581introduce": 6952,
  "\u2581consultatif": 6953,
  "\u2581li\u00e9s": 6954,
  "ious": 6955,
  "\u2581powerful": 6956,
  "not": 6957,
  "\u2581neither": 6958,
  "tifs": 6959,
  "\u2581nova": 6960,
  "\u2581considers": 6961,
  "\u2581cele": 6962,
  "\u2581breve": 6963,
  "\u2581matar": 6964,
  "\u2581trouv\u00e9": 6965,
  "\u2581park": 6966,
  "bia": 6967,
  "\u00e1rios": 6968,
  "\u2581detail": 6969,
  "\u00e9ration": 6970,
  "\u2581trei": 6971,
  "\u2581grands": 6972,
  "\u258199": 6973,
  "6,": 6974,
  "\u2581tableau": 6975,
  "\u2581posts": 6976,
  "\u2581\u00e9crit": 6977,
  "\u2581Case": 6978,
  "\u2581fourth": 6979,
  "\u2581comercio": 6980,
  "\u2581looked": 6981,
  "\u2581justicia": 6982,
  "\u2581globale": 6983,
  "\u2581filho": 6984,
  "\u2581propri\u00e9t\u00e9": 6985,
  "\u2581previsto": 6986,
  "\u2581tratta": 6987,
  "prov": 6988,
  "\u2581comprar": 6989,
  "\u2581figures": 6990,
  "\u258111,": 6991,
  "\u2581termine": 6992,
  "\u2581Bay": 6993,
  "\u2581receiving": 6994,
  "\u2581equivalent": 6995,
  "\u2581\u00e1mbito": 6996,
  "\u2581revised": 6997,
  "\u2581jeu": 6998,
  "\u2581ning\u00fan": 6999,
  "g\u00e9n": 7000,
  "\u2581bois": 7001,
  "\u2581provincial": 7002,
  "anza": 7003,
  "\u2581UNDP": 7004,
  "\u2581Technical": 7005,
  "\u2581Start": 7006,
  "uc": 7007,
  "\u2581pronto": 7008,
  "\u2581Imp": 7009,
  "\u2581contacto": 7010,
  "\u2581respectively": 7011,
  "\u2581handle": 7012,
  "\u2581cells": 7013,
  "\u2581f\u00e9": 7014,
  "gel": 7015,
  "\u2581Vai": 7016,
  "\u2581classes": 7017,
  "\u2581governo": 7018,
  "\u2581examinar": 7019,
  "\u2581gratuit": 7020,
  "cr\u00e9": 7021,
  "\u2581p\u00e2n\u0103": 7022,
  "izzazione": 7023,
  "\u2581carrying": 7024,
  "\u2581weather": 7025,
  "\u00e1veis": 7026,
  "\u2581taxes": 7027,
  "\u2581acting": 7028,
  "\u2581component": 7029,
  "\u2581riguarda": 7030,
  "\u2581fil": 7031,
  "\u2581meilleure": 7032,
  "\u2581sang": 7033,
  "\u2581fais": 7034,
  "\u2581Parece": 7035,
  "\u2581sendo": 7036,
  "\u2581transformation": 7037,
  "\u2581comunitario": 7038,
  "\u2581ser\u00eda": 7039,
  "\u2581Science": 7040,
  "\u2581holiday": 7041,
  "\u2581suggested": 7042,
  "\u2581Map": 7043,
  "\u2581declaration": 7044,
  "\u2581cons\u00e9quent": 7045,
  "\u2581deste": 7046,
  "\u2581Foundation": 7047,
  "\u2581m\u00e8re": 7048,
  "vale": 7049,
  "(3)": 7050,
  "\u2581surtout": 7051,
  "rias": 7052,
  "\u2581ait": 7053,
  "\u2581\u00f3rganos": 7054,
  "\u2581significantly": 7055,
  "\u2581negli": 7056,
  "\u2581territorial": 7057,
  "\u2581election": 7058,
  "\u2581anymore": 7059,
  "Ro": 7060,
  "\u2581discriminaci\u00f3n": 7061,
  "\u2581Res": 7062,
  "\u2581marque": 7063,
  "\u2581statistiques": 7064,
  "spe": 7065,
  "\u2581involvement": 7066,
  "\u25812020": 7067,
  "z\u0103": 7068,
  "\u2581d\u00e9lai": 7069,
  "\u2581volte": 7070,
  "\u2581conto": 7071,
  "\u2581Gre": 7072,
  "\u2581Bro": 7073,
  "\u2581demanda": 7074,
  "\u2581\u00e9lev\u00e9": 7075,
  "\u2581suffering": 7076,
  "\u2581Belgium": 7077,
  "\u2581quiere": 7078,
  "\u2581Entonces": 7079,
  "\u2581Monsieur": 7080,
  "cine": 7081,
  "nale": 7082,
  "\u2581\u00c3": 7083,
  "\u2581r\u00e9glementation": 7084,
  "\u2581transparency": 7085,
  "\u2581circulation": 7086,
  "\u2581sostenible": 7087,
  "\u2581YOU": 7088,
  "\u2581Unit": 7089,
  "mus": 7090,
  "imento": 7091,
  "\u2581union": 7092,
  "is\u00e9": 7093,
  "\u2581%)": 7094,
  "\u2581oggi": 7095,
  "IF": 7096,
  "\u2581tenha": 7097,
  "\u2581atr\u00e1s": 7098,
  "\u2581older": 7099,
  "\u2581Dad": 7100,
  "\u258168": 7101,
  "\u2581occur": 7102,
  "\u2581Tur": 7103,
  "\u2581alive": 7104,
  "\u2581crecimiento": 7105,
  "star": 7106,
  "\u2581ourselves": 7107,
  "\u2581Family": 7108,
  "\u2581chosen": 7109,
  "t\u00e9s": 7110,
  "\u2581marchandises": 7111,
  "\u2581soul": 7112,
  "sc": 7113,
  "\u2581Notre": 7114,
  "\u2581Technology": 7115,
  "\u2581supports": 7116,
  "\u2581escala": 7117,
  "\u2581Royal": 7118,
  "\u2581Safety": 7119,
  "\u2581Israeli": 7120,
  "\u2581testing": 7121,
  "\u2581twenty": 7122,
  "fin": 7123,
  "\u2581dinner": 7124,
  "\u2581aplica": 7125,
  "\u2581Talvez": 7126,
  "\u2581Questa": 7127,
  "\u258187": 7128,
  "\u2581li\u00e9es": 7129,
  "\u2581exposure": 7130,
  "tz": 7131,
  "\u2581faites": 7132,
  "BA": 7133,
  "\u2581acc": 7134,
  "RC": 7135,
  "\u2581Make": 7136,
  "quer": 7137,
  "What": 7138,
  "\u2581wrote": 7139,
  "\u2581reasonable": 7140,
  "\u2581industries": 7141,
  "urilor": 7142,
  "\u2581ethnic": 7143,
  "ably": 7144,
  "\u2581Which": 7145,
  "\u2581gratis": 7146,
  "\u2581mostra": 7147,
  "\u2581v\u00e9rification": 7148,
  "\u2581ensuite": 7149,
  "\u2581Cosa": 7150,
  "idos": 7151,
  "\u2581m\u00e9canismes": 7152,
  "sivo": 7153,
  "\u2581allo": 7154,
  "\u2581genre": 7155,
  "\u25812002.": 7156,
  "\u2581agency": 7157,
  "lina": 7158,
  "\u2581semanas": 7159,
  "amos": 7160,
  "\u2581gruppo": 7161,
  "\u2581cop": 7162,
  "\u258189": 7163,
  "\u2581tratamento": 7164,
  "\u2581grandi": 7165,
  "\u2581ajudar": 7166,
  "\u2581pr\u00e9vu": 7167,
  "\u2581helped": 7168,
  "n\u0163a": 7169,
  "\u2581Greek": 7170,
  "\u2581vise": 7171,
  "\u2581guests": 7172,
  "\u2581achieving": 7173,
  "\u2581remaining": 7174,
  "issement": 7175,
  "\u2581principalmente": 7176,
  "\u2581Ministers": 7177,
  "\u2581Lei": 7178,
  "\u2581direito": 7179,
  "\u25811994,": 7180,
  "od": 7181,
  "gro": 7182,
  "\u2581Romania": 7183,
  "\u2581funciona": 7184,
  "\u2581generation": 7185,
  "-12": 7186,
  "-8": 7187,
  "\u2581terreno": 7188,
  "\u2581eran": 7189,
  "\u2581m\u00e9dias": 7190,
  "num": 7191,
  "\u2581remove": 7192,
  "\u2581participantes": 7193,
  "\u2581juegos": 7194,
  "\u2581qualcosa": 7195,
  "\u2581fondo": 7196,
  "s\u00e9": 7197,
  "tare": 7198,
  "\u2581Democratic": 7199,
  "\u2581focused": 7200,
  "\u2581presentation": 7201,
  "\u2581perform": 7202,
  "\u2581coin": 7203,
  "\u2581Agenda": 7204,
  "\u2581forced": 7205,
  "\u2581rec": 7206,
  "r\u00f2": 7207,
  "\u2581Order": 7208,
  "\u2581comigo": 7209,
  "gues": 7210,
  "\u2581Ora": 7211,
  "rc": 7212,
  "NI": 7213,
  "\u2581Out": 7214,
  "\u2581M\u0103": 7215,
  "\u2581FR": 7216,
  "\u2581gr": 7217,
  "\u2581Mini": 7218,
  "hr": 7219,
  "\u2581presta": 7220,
  "\u2581identification": 7221,
  "\u2581pace": 7222,
  "nant": 7223,
  "\u2581exp\u00e9rience": 7224,
  "So": 7225,
  "\u2581m\u00e1ximo": 7226,
  "-19": 7227,
  "it\u00e9s": 7228,
  "\u2581directrices": 7229,
  "\u2581taille": 7230,
  "\u2581Washington": 7231,
  "\u2581mesma": 7232,
  "ric": 7233,
  "\u2581ME": 7234,
  "\u2581pues": 7235,
  "\u00e9tat": 7236,
  "\u2581PNUD": 7237,
  "\u2581severe": 7238,
  "\u2581meilleur": 7239,
  "\u2581Rica": 7240,
  "\u2581comprendre": 7241,
  "\u2581meat": 7242,
  "\u2581consommation": 7243,
  "\u2581decisione": 7244,
  "\u2581gun": 7245,
  "\u2581constante": 7246,
  "\u2581utilis\u00e9s": 7247,
  "imp": 7248,
  "mba": 7249,
  "\u2581profile": 7250,
  "\u2581title": 7251,
  "\u2581Name": 7252,
  "\u2581humana": 7253,
  "\u2581giu": 7254,
  "\u2581chemical": 7255,
  "\u2581visual": 7256,
  "\u2581D\u00e9claration": 7257,
  "\u2581tip": 7258,
  "\u2581presentar": 7259,
  "PT": 7260,
  "\u2581sp\u00e9cifiques": 7261,
  "eva": 7262,
  "cum": 7263,
  "\u2581trabajadores": 7264,
  "\u2581favore": 7265,
  "\u2581cat\u00e9gorie": 7266,
  "\u2581bisogno": 7267,
  "\u2581lugares": 7268,
  "rum": 7269,
  "\u2581indispensable": 7270,
  "\u2581bear": 7271,
  "\u2581resta": 7272,
  "\u2581creo": 7273,
  "mann": 7274,
  "\u2581applies": 7275,
  "\u2581sentiment": 7276,
  "\u2581exclusive": 7277,
  "\u2581orders": 7278,
  "\u2581Egypt": 7279,
  "\u258191": 7280,
  "\u2581deixar": 7281,
  "h\u00e9": 7282,
  "\u2581visited": 7283,
  "\u2581courant": 7284,
  "\u2581Monday": 7285,
  "\u2581comercial": 7286,
  "\u2581counter": 7287,
  "\u0219": 7288,
  "\u25812014,": 7289,
  "\u2581helping": 7290,
  "cimiento": 7291,
  "\u2581migration": 7292,
  "\u2581teachers": 7293,
  "\u2581pr\u00e9voit": 7294,
  "\u2581Ban": 7295,
  "\u2581alia": 7296,
  "MS": 7297,
  "\u2581reducir": 7298,
  "\u2581fils": 7299,
  "ological": 7300,
  "\u2581constant": 7301,
  "\u2581nuestras": 7302,
  "tour": 7303,
  "\u2581pr\u00e9sentation": 7304,
  "\u2581officer": 7305,
  "\u258184": 7306,
  "\u2581somos": 7307,
  "\u2581\u00eentre": 7308,
  "room": 7309,
  "\u2581gift": 7310,
  "\u2581cuisine": 7311,
  "ult": 7312,
  "\u2581anno": 7313,
  "\u2581directeur": 7314,
  "\u2581\u00e9ducation": 7315,
  "importance": 7316,
  "\u258102": 7317,
  "\u2581firma": 7318,
  "\u2581Common": 7319,
  "\u2581meant": 7320,
  "\u2581chacun": 7321,
  "\u2581huge": 7322,
  "\u2581v\u00e9hicules": 7323,
  "\u2581pessoa": 7324,
  "\u2581tenue": 7325,
  "sses": 7326,
  "\u2581realidad": 7327,
  "\u2581vale": 7328,
  "\u2581wonderful": 7329,
  "\u2581Cur": 7330,
  "mia": 7331,
  "\u2581managed": 7332,
  "\u2581superficie": 7333,
  "\u2581unei": 7334,
  "\u2581devono": 7335,
  "\u2581disc": 7336,
  "\u2581foot": 7337,
  "\u2581ali": 7338,
  "\u2581advanced": 7339,
  "\u2581Espa\u00f1a": 7340,
  "\u2581cr\u00e9\u00e9": 7341,
  "\u2581wind": 7342,
  "\u2581periodic": 7343,
  "cord": 7344,
  "\u2581integral": 7345,
  "\u2581Ger": 7346,
  "\u2581tecnolog\u00eda": 7347,
  "\u2581Montr\u00e9al": 7348,
  "\u2581sharing": 7349,
  "\u2581ran": 7350,
  "\u2581arre": 7351,
  "\u25813)": 7352,
  "dll": 7353,
  "ified": 7354,
  "\u2581sweet": 7355,
  "\u258176": 7356,
  "\u2581deliver": 7357,
  "\u2581violent": 7358,
  "\u2581signature": 7359,
  "\u2581teu": 7360,
  "Que": 7361,
  "dora": 7362,
  "\u2581ads": 7363,
  "\u2581signal": 7364,
  "\u2581grow": 7365,
  "\u2581plein": 7366,
  "ow": 7367,
  "\u258173": 7368,
  "\u2581dream": 7369,
  "\u2581Site": 7370,
  "char": 7371,
  "\u2581Point": 7372,
  "\u2581Tim": 7373,
  "nier": 7374,
  "\u2581torna": 7375,
  "gle": 7376,
  "\u2581gain": 7377,
  "\u2581Blog": 7378,
  "forme": 7379,
  "ss\u00e9": 7380,
  "\u2581vrai": 7381,
  "til": 7382,
  "\u2581Onde": 7383,
  "\u2581Ana": 7384,
  "field": 7385,
  "\u2581utile": 7386,
  "2003": 7387,
  "\u2581heat": 7388,
  "\u2581properties": 7389,
  "\u2581screen": 7390,
  "\u2581television": 7391,
  "\u258116.": 7392,
  "\u2581Lake": 7393,
  "\u2581ACP": 7394,
  "nis": 7395,
  "rons": 7396,
  "\u2581carro": 7397,
  "iu": 7398,
  "\u2581Protocolo": 7399,
  "\u2581niveles": 7400,
  "rat": 7401,
  "ex\u00e9cution": 7402,
  "\u2581Secr\u00e9tariat": 7403,
  "\u2581Muito": 7404,
  "\u2581\u00e9tablissements": 7405,
  "\u2581Sweden": 7406,
  "\u2581nine": 7407,
  "\u2581villa": 7408,
  "\u2581named": 7409,
  "\u2581molti": 7410,
  "\u2581fan": 7411,
  "\u2581desta": 7412,
  "\u2581Sp": 7413,
  "fri": 7414,
  "\u2581recommends": 7415,
  "\u2581nostri": 7416,
  "\u2581relat\u00f3rio": 7417,
  "\u2581Ch": 7418,
  "sie": 7419,
  "\u2581compara": 7420,
  "ef": 7421,
  "\u2581Society": 7422,
  "\u2581pression": 7423,
  "\u2581rock": 7424,
  "\u2581facteurs": 7425,
  "\u2581flexible": 7426,
  "jar": 7427,
  "\u2581signs": 7428,
  "\u2581z": 7429,
  "\u2581bastante": 7430,
  "\u2581eficaz": 7431,
  "\u2581Following": 7432,
  "\u2581Jes\u00fas": 7433,
  "\u2581migrants": 7434,
  "gono": 7435,
  "\u2581deja": 7436,
  "\u2581aire": 7437,
  "\u2581activit\u00e9": 7438,
  "\u2581Bosnia": 7439,
  "exploitation": 7440,
  "\u2581cl": 7441,
  "5)": 7442,
  "\u2581Strategy": 7443,
  "\u2581everybody": 7444,
  "nor": 7445,
  "spec": 7446,
  "\u2581compl\u00e8te": 7447,
  "\u2581Marco": 7448,
  "SS": 7449,
  "\u2581cr\u00e9dit": 7450,
  "\u2581consent": 7451,
  "\u2581murder": 7452,
  "\u2581certeza": 7453,
  "torio": 7454,
  "\u2581Framework": 7455,
  "\u2581Quebec": 7456,
  "\u2581declaraci\u00f3n": 7457,
  "\u2581connaissances": 7458,
  "\u2581langues": 7459,
  "\u2581concurrence": 7460,
  "\u2581Video": 7461,
  "\u2581mapa": 7462,
  "\u2581chapter": 7463,
  "\u2581disco": 7464,
  "\u2581lived": 7465,
  "\u2581sede": 7466,
  "\u2581http": 7467,
  "\u258150%": 7468,
  "\u2581cam": 7469,
  "\u2581pr\u00e9vues": 7470,
  "\u2581mulher": 7471,
  "\u2581controls": 7472,
  "\u2581nimic": 7473,
  "\u2581soumis": 7474,
  "\u2581Todo": 7475,
  "\u2581reuniones": 7476,
  "\u2581Pacific": 7477,
  "fil": 7478,
  "\u2581environnemental": 7479,
  "\u2581Peace": 7480,
  "uz": 7481,
  "\u2581DO": 7482,
  "\u2581energia": 7483,
  "\u2581d\u00e9mocratique": 7484,
  "\u2581returned": 7485,
  "\u2581interesse": 7486,
  "\u2581eres": 7487,
  "\u2581palabras": 7488,
  "\u2581Middle": 7489,
  "\u2581petite": 7490,
  "\u2581participating": 7491,
  ".30": 7492,
  "\u2581imposed": 7493,
  "\u2581th": 7494,
  "\u2581professionals": 7495,
  "\u2581medicine": 7496,
  "\u2581di\u00e1logo": 7497,
  "\u2581properly": 7498,
  "rge": 7499,
  "\u2581statistical": 7500,
  "\u2581Sierra": 7501,
  "1999": 7502,
  "\u2581piu": 7503,
  "\u258197": 7504,
  "\u2581nou": 7505,
  "auto": 7506,
  "well": 7507,
  "\u2581settlement": 7508,
  "\u2581findings": 7509,
  "\u2581unemployment": 7510,
  "\u2581Juan": 7511,
  "\u2581arrive": 7512,
  "\u2581standing": 7513,
  "\u2581Chine": 7514,
  "\u2581explained": 7515,
  "\u258186": 7516,
  "\u2581accords": 7517,
  "\u2581becoming": 7518,
  "ngo": 7519,
  "\u2581humaines": 7520,
  "AB": 7521,
  "\u2581desire": 7522,
  "SD": 7523,
  "\u2581houses": 7524,
  "\u2581condi\u00e7\u00f5es": 7525,
  "\u2581societ\u00e0": 7526,
  "\u2581actes": 7527,
  "dessous": 7528,
  "\u2581Multi": 7529,
  "\u2581voluntary": 7530,
  "\u2581financier": 7531,
  "wan": 7532,
  "uma": 7533,
  "\u2581conventions": 7534,
  "\u2581coraz\u00f3n": 7535,
  "\u2581players": 7536,
  "\u2581Grazie": 7537,
  "\u2581planification": 7538,
  "low": 7539,
  "\u2581career": 7540,
  "\u2581verifica": 7541,
  "\u2581all\u00ed": 7542,
  "\u2581g\u00e9nero": 7543,
  "\u2581r\u00e9fugi\u00e9s": 7544,
  "sha": 7545,
  "\u2581raisons": 7546,
  "RS": 7547,
  "\u2581brain": 7548,
  "\u2581Ukraine": 7549,
  "\u2581mati\u00e8res": 7550,
  "\u2581Gas": 7551,
  "\u2581estudios": 7552,
  "\u2581pois": 7553,
  "\u2581vulnerable": 7554,
  "\u2581healthy": 7555,
  "bl\u00e9": 7556,
  "\u2581delegations": 7557,
  "\u2581Sai": 7558,
  "mpa": 7559,
  "occasion": 7560,
  "ign": 7561,
  "\u2581Click": 7562,
  "appui": 7563,
  "xe": 7564,
  "\u2581treat": 7565,
  "\u2581technological": 7566,
  "\u2581Ser": 7567,
  "phi": 7568,
  "tergovernmental": 7569,
  "\u2581Bull": 7570,
  "\u2581Puerto": 7571,
  "\u2581generale": 7572,
  "PO": 7573,
  "\u2581Solo": 7574,
  "\u2581possibilit\u00e9s": 7575,
  "\u2581uniform": 7576,
  "\u2581qualidade": 7577,
  "\u2581Puede": 7578,
  "ami": 7579,
  "\u2581estime": 7580,
  "\u2581obstante": 7581,
  "\u2581fica": 7582,
  "tage": 7583,
  "\u2581heavy": 7584,
  "\u2581paese": 7585,
  "\u2581Suite": 7586,
  "ford": 7587,
  "istic": 7588,
  "6%": 7589,
  "\u2581retour": 7590,
  "\u2581Three": 7591,
  "\u2581amending": 7592,
  "/5": 7593,
  "/3": 7594,
  "\u2581Bur": 7595,
  "\u2581Prix": 7596,
  "\u2581ment": 7597,
  "av": 7598,
  "\u2581Jan": 7599,
  "\u2581binding": 7600,
  "\u2581a\u00ed": 7601,
  "ides": 7602,
  "\u2581keeping": 7603,
  "\u2581command": 7604,
  "\u2581actividad": 7605,
  "\u2581crian\u00e7as": 7606,
  "\u2581comfortable": 7607,
  "\u2581plano": 7608,
  "\u2581Ur": 7609,
  "\u2581fuori": 7610,
  "\u2581locaux": 7611,
  "\u2581Carta": 7612,
  "\u2581dry": 7613,
  "\u2581bringing": 7614,
  "\u2581pagar": 7615,
  "\u25811993,": 7616,
  "3%": 7617,
  "\u2581puedan": 7618,
  "row": 7619,
  "n\u00e9e": 7620,
  "\u2581produzione": 7621,
  "\u2581precio": 7622,
  "\u2581vino": 7623,
  "\u2581Tro": 7624,
  "top": 7625,
  "\u2581river": 7626,
  "\u2581conception": 7627,
  "\u2581nici": 7628,
  "\u2581huh": 7629,
  "\u2581judge": 7630,
  "\u2581Really": 7631,
  "ude": 7632,
  "\u2581costa": 7633,
  "\u2581recognize": 7634,
  "\u2581lumi\u00e8re": 7635,
  "\u2581imagine": 7636,
  "\u2581thousand": 7637,
  "\u2581importants": 7638,
  "\u2581Rules": 7639,
  "\u2581undertaking": 7640,
  "\u2581geo": 7641,
  "7%": 7642,
  "\u2581tratar": 7643,
  "\u2581quiet": 7644,
  "\u2581recommend": 7645,
  "\u2581mentre": 7646,
  "\u25812011.": 7647,
  "\u0103ri": 7648,
  "\u2581Bou": 7649,
  "\u2581rose": 7650,
  "\u2581feed": 7651,
  "\u25812001.": 7652,
  "\u2581Terra": 7653,
  "\u2581dura": 7654,
  "\u2581funciones": 7655,
  "\u2581travailler": 7656,
  "oni": 7657,
  "\u2581sp": 7658,
  "\u2581mejores": 7659,
  "\u2581enqu\u00eate": 7660,
  "8%": 7661,
  "5%": 7662,
  "\u2581\u00e9tablir": 7663,
  "\u2581eligible": 7664,
  "\u2581failed": 7665,
  "\u2581Accueil": 7666,
  "\u2581an\u00e1lise": 7667,
  "\u2581ON": 7668,
  "str": 7669,
  "\u2581opini\u00f3n": 7670,
  "\u258194": 7671,
  "\u2581compatible": 7672,
  "\u2581updated": 7673,
  "\u2581exemplo": 7674,
  "phy": 7675,
  "\u2581approaches": 7676,
  "\u2581propos\u00e9": 7677,
  "including": 7678,
  "\u2581drop": 7679,
  "6)": 7680,
  "\u00e8rent": 7681,
  "\u2581Festival": 7682,
  "Pre": 7683,
  "\u2581funcionarios": 7684,
  "vit": 7685,
  "\u2581Implementation": 7686,
  "\u2581conversion": 7687,
  "\u2581sets": 7688,
  "\u2581t\u00e9l\u00e9": 7689,
  "\u2581welcomed": 7690,
  "cente": 7691,
  "\u2581dance": 7692,
  "GA": 7693,
  "\u2581combina": 7694,
  "\u2581cumplimiento": 7695,
  "\u2581controllo": 7696,
  "mentos": 7697,
  "\u2581investments": 7698,
  "bilit\u00e0": 7699,
  "\u2581journey": 7700,
  "\u2581aren": 7701,
  "\u2581reco": 7702,
  "\u2581Acc": 7703,
  "\u2581\u00e9missions": 7704,
  "\u2581Sala": 7705,
  "\u2581r\u00e9forme": 7706,
  "\u2581resulta": 7707,
  "\u2581gobiernos": 7708,
  "\u00edas": 7709,
  "\u2581defence": 7710,
  "\u2581prestar": 7711,
  "\u2581esca": 7712,
  "\u2581sole": 7713,
  "IV": 7714,
  "\u2581www": 7715,
  "km": 7716,
  "\u258169": 7717,
  "\u2581augmentation": 7718,
  "\u2581tales": 7719,
  "\u2581necess\u00e1rio": 7720,
  "\u25812012.": 7721,
  "\u2581periods": 7722,
  "\u2581febrero": 7723,
  "\u2581Bio": 7724,
  "c\u00e7\u00e3o": 7725,
  "isse": 7726,
  "\u2581certification": 7727,
  "\u2581toutefois": 7728,
  "\u2581andare": 7729,
  "\u2581Articolo": 7730,
  "mark": 7731,
  "\u2581motion": 7732,
  "TP": 7733,
  "\u2581feliz": 7734,
  "\u2581temas": 7735,
  "\u2581restaurants": 7736,
  "\u2581Toronto": 7737,
  "EUR": 7738,
  "\u2581Sabe": 7739,
  "\u2581suivre": 7740,
  "cel": 7741,
  "\u2581Pai": 7742,
  "dem": 7743,
  "\u2581theme": 7744,
  "\u2581Jos\u00e9": 7745,
  "\u2581stocks": 7746,
  "\u2581s\u00e9jour": 7747,
  "\u2581interventions": 7748,
  "\u2581examin\u00e9": 7749,
  "vam": 7750,
  "\u2581somebody": 7751,
  "act": 7752,
  "2007": 7753,
  "\u2581secondary": 7754,
  "\u2581sola": 7755,
  "\u2581lie": 7756,
  "\u2581Protocole": 7757,
  "\u2581muestra": 7758,
  "\u2581Cat": 7759,
  "pres": 7760,
  "\u0219i": 7761,
  "\u2581acceptable": 7762,
  "metro": 7763,
  "wood": 7764,
  "\u2581S\u00e9": 7765,
  "\u2581Team": 7766,
  "\u2581chambres": 7767,
  "\u2581iniciativas": 7768,
  "\u2581v\u00edctimas": 7769,
  "etto": 7770,
  "\u2581menor": 7771,
  "MENT": 7772,
  "ben": 7773,
  "\u2581Sunday": 7774,
  "\u2581student": 7775,
  "ey": 7776,
  "\u2581centros": 7777,
  "\u2581increasingly": 7778,
  "\u2581rare": 7779,
  "\u2581si\u00e8cle": 7780,
  "\u2581industria": 7781,
  "\u2581memory": 7782,
  "\u2581background": 7783,
  "\u2581peaceful": 7784,
  "\u2581chambre": 7785,
  "\u2581bande": 7786,
  "\u2581transports": 7787,
  "efficacit\u00e9": 7788,
  "\u2581manifesta": 7789,
  "\u2581farm": 7790,
  "\u2581larger": 7791,
  "\u2581Mira": 7792,
  "\u2581Light": 7793,
  "\u2581greatest": 7794,
  "\u2581Hall": 7795,
  "\u2581exclu": 7796,
  "mber": 7797,
  "\u2581t\u00edtulo": 7798,
  "\u00e9conomie": 7799,
  "\u2581depende": 7800,
  "\u2581boat": 7801,
  "\u2581ami": 7802,
  "\u2581directamente": 7803,
  "\u2581conven": 7804,
  "\u2581aplica\u00e7\u00e3o": 7805,
  "enseignement": 7806,
  "\u2581fazendo": 7807,
  "\u2581Call": 7808,
  "\u2581Kar": 7809,
  "\u2581compra": 7810,
  "\u2581diffusion": 7811,
  "\u2581direcci\u00f3n": 7812,
  "\u2581Deve": 7813,
  "\u2581encouraged": 7814,
  "\u2581lignes": 7815,
  "\u2581Bol": 7816,
  "\u2581mecanismos": 7817,
  "\u2581seat": 7818,
  "\u2581evil": 7819,
  "\u2581diritto": 7820,
  "\u2581changing": 7821,
  "\u2581Ministerio": 7822,
  "DP": 7823,
  "\u2581usage": 7824,
  "\u2581Lorsque": 7825,
  "\u2581seeing": 7826,
  "\u2581jur": 7827,
  "\u2581privado": 7828,
  "\u2581800": 7829,
  "\u2581mutual": 7830,
  "\u2581jouer": 7831,
  "\u2581termos": 7832,
  "\u2581Junta": 7833,
  "ago": 7834,
  "\u2581administra": 7835,
  "\u2581departments": 7836,
  "\u2581lettre": 7837,
  "MC": 7838,
  "\u2581diferente": 7839,
  "comp": 7840,
  "\u2581ejercicio": 7841,
  "\u2581soluci\u00f3n": 7842,
  "\u2581fonctionnaires": 7843,
  "\u2581sports": 7844,
  "\u2581PA": 7845,
  "\u2581driving": 7846,
  "EA": 7847,
  "\u2581varias": 7848,
  "tric": 7849,
  "\u2581suma": 7850,
  "\u2581caract\u00e9ristique": 7851,
  "\u2581t\u00eate": 7852,
  "\u2581Watch": 7853,
  "\u00e9laboration": 7854,
  "\u2581corresponding": 7855,
  "book": 7856,
  "\u2581confiance": 7857,
  "\u2581Aqui": 7858,
  "\u2581dossier": 7859,
  "\u2581Thursday": 7860,
  "\u2581racial": 7861,
  "\u2581Christmas": 7862,
  "\u2581tonnes": 7863,
  "/2006": 7864,
  "\u2581oportunidad": 7865,
  "\u2581dispuesto": 7866,
  "\u2581PDF": 7867,
  "\u2581wear": 7868,
  "explo": 7869,
  "\u2581\u00e9lectronique": 7870,
  "\u2581S\u00f3lo": 7871,
  "\u2581facto": 7872,
  "\u2581visible": 7873,
  "\u2581Departamento": 7874,
  "r\u00e3o": 7875,
  "\u2581homens": 7876,
  "\u2581faits": 7877,
  "g\u00fan": 7878,
  "yan": 7879,
  "\u2581fuerte": 7880,
  "pers": 7881,
  "\u2581Games": 7882,
  "quis": 7883,
  "\u2581Quer": 7884,
  "\u2581juntos": 7885,
  "\u2581municipal": 7886,
  "\u2581priorit\u00e9s": 7887,
  "\u2581straight": 7888,
  "\u2581specialized": 7889,
  "\u2581Cred": 7890,
  "\u00e9gard": 7891,
  "\u2581hundred": 7892,
  "\u2581elected": 7893,
  "\u2581sitting": 7894,
  "rebbe": 7895,
  "\u2581meus": 7896,
  "\u2581destino": 7897,
  "\u2581seeking": 7898,
  "\u2581Resources": 7899,
  "\u2581competitive": 7900,
  "\u2581LORD": 7901,
  "\u2581experienced": 7902,
  "\u2581carbon": 7903,
  "\u2581objet": 7904,
  "\u2581guarda": 7905,
  "\u2581administraci\u00f3n": 7906,
  "\u2581declared": 7907,
  "\u2581warm": 7908,
  "\u2581occurred": 7909,
  "\u2581Cultural": 7910,
  "uf": 7911,
  "\u2581disarmament": 7912,
  "pia": 7913,
  "\u2581int\u00e9r\u00eats": 7914,
  "porta": 7915,
  "\u2581\u00e9xito": 7916,
  "\u2581song": 7917,
  "\u2581opposition": 7918,
  "\u2581f\u00e9d\u00e9ral": 7919,
  "\u2581Industrial": 7920,
  "200": 7921,
  "\u2581Availability": 7922,
  "tero": 7923,
  "\u2581comptes": 7924,
  "\u2581libro": 7925,
  "\u2581siano": 7926,
  "\u2581~": 7927,
  "\u2581Mom": 7928,
  "ento": 7929,
  "dit": 7930,
  "\u2581requisitos": 7931,
  "\u2581Word": 7932,
  "\u2581removed": 7933,
  "\u2581at\u00e2t": 7934,
  "\u2581necessario": 7935,
  "\u2581electoral": 7936,
  "\u2581Peru": 7937,
  "phe": 7938,
  "].": 7939,
  "\u2581Ottawa": 7940,
  "\u2581operate": 7941,
  "ologia": 7942,
  "illes": 7943,
  "\u2581namely": 7944,
  "\u2581List": 7945,
  "igo": 7946,
  "tribu": 7947,
  "objectif": 7948,
  "7,": 7949,
  "\u2581relaciones": 7950,
  "\u00e9ro": 7951,
  "\u2581Bruxelles": 7952,
  "\u2581Pres": 7953,
  "\u2581transfert": 7954,
  "\u2581anglais": 7955,
  "\u2581pic": 7956,
  "\u2581servizio": 7957,
  "\u2581actuelle": 7958,
  "\u2581queria": 7959,
  "\u2581propone": 7960,
  "\u2581fill": 7961,
  "\u2581finding": 7962,
  "\u2581gi": 7963,
  "tus": 7964,
  "\u2581prote": 7965,
  "\u00e9tude": 7966,
  "==": 7967,
  "\u2581ma\u00f1ana": 7968,
  "\u2581obra": 7969,
  "\u258171": 7970,
  "\u2581Matt": 7971,
  "rul": 7972,
  "\u2581constitute": 7973,
  "\u2581Pays": 7974,
  "FP": 7975,
  "\u2581driver": 7976,
  "LI": 7977,
  "\u2581prop": 7978,
  "\u2581peacekeeping": 7979,
  "\u2581Av": 7980,
  "\u2581cuidado": 7981,
  "\u2581coordinaci\u00f3n": 7982,
  "\u2581(4": 7983,
  "EP": 7984,
  "ama": 7985,
  "FF": 7986,
  "\u2581primarily": 7987,
  "\u2581hist\u00f3ria": 7988,
  "\u2581conserva": 7989,
  "\u2581Prime": 7990,
  "iera": 7991,
  "\u2581engage": 7992,
  "\u2581subsequent": 7993,
  "\u2581Acuerdo": 7994,
  "pone": 7995,
  "\u2581profession": 7996,
  "\u2581showing": 7997,
  "tron": 7998,
  "\u2581Standard": 7999,
  "\u2581Penal": 8000,
  "\u258110%": 8001,
  "\u2581forth": 8002,
  "\u2581diversos": 8003,
  "\u2581pedir": 8004,
  "\u2581CEE": 8005,
  "\u2581Jerusalem": 8006,
  "\u2581alcohol": 8007,
  "tho": 8008,
  "\u25811984": 8009,
  "\u2581sabes": 8010,
  "abord": 8011,
  "\u2581Deci": 8012,
  "\u2581dec\u00e2t": 8013,
  "5,": 8014,
  "\u2581est\u00e9": 8015,
  "\u2581suggest": 8016,
  "\u2581demasiado": 8017,
  "\u2581profesional": 8018,
  "\u2581senior": 8019,
  "\u2581Banque": 8020,
  "\u2581Sorry": 8021,
  "\u2581Model": 8022,
  "-7": 8023,
  "pare": 8024,
  "\u2581MP": 8025,
  "\u2581substantial": 8026,
  "\u2581comuni": 8027,
  "\u2581discover": 8028,
  "\u2581Posso": 8029,
  "\u2581nossos": 8030,
  "\u2581Cop": 8031,
  "\u2581Stop": 8032,
  "\u2581Training": 8033,
  "\u2581defini": 8034,
  "\u2581ski": 8035,
  "\u2581summary": 8036,
  "\u2581catch": 8037,
  "\u2581tenga": 8038,
  "sser": 8039,
  "sos": 8040,
  "\u2581Keep": 8041,
  "\u2581m\u00e9thode": 8042,
  "\u2581sco": 8043,
  "\u2581juridiques": 8044,
  "\u2581Charles": 8045,
  "ifier": 8046,
  "pas": 8047,
  "\u2581pilot": 8048,
  "\u2581Chamber": 8049,
  "\u2581vero": 8050,
  "vide": 8051,
  "\u2581manual": 8052,
  "\u2581chemin": 8053,
  "MIN": 8054,
  "xo": 8055,
  "ok": 8056,
  "\u2581cards": 8057,
  "\u2581heading": 8058,
  "tives": 8059,
  "\u2581Soy": 8060,
  "\u2581buen": 8061,
  "\u2581dare": 8062,
  "fen": 8063,
  "\u2581certificate": 8064,
  "\u2581aveva": 8065,
  "\u2581Pakistan": 8066,
  "\u2581aceast\u0103": 8067,
  "\u2581fat": 8068,
  "\u2581tension": 8069,
  "\u2581transparent": 8070,
  "\u25811.3": 8071,
  "\u2581n\u00e9gociations": 8072,
  "plica": 8073,
  "ising": 8074,
  "\u2581opinions": 8075,
  "\u2581controlled": 8076,
  "\u2581parle": 8077,
  "\u2581presse": 8078,
  "\u2581Nice": 8079,
  "\u2581t\u0103u": 8080,
  "\u2581Whereas": 8081,
  "\u2581iar": 8082,
  "ets": 8083,
  "\u2581vessels": 8084,
  "\u2581multe": 8085,
  "ANT": 8086,
  "\u2581petits": 8087,
  "\u2581Seu": 8088,
  "ic\u0103": 8089,
  "\u2581propuestas": 8090,
  "\u2581communaut\u00e9s": 8091,
  "\u2581subjects": 8092,
  "\u2581EESC": 8093,
  "\u2581Quand": 8094,
  "\u2581m\u00ednimo": 8095,
  "\u00e9galit\u00e9": 8096,
  "\u2581Isto": 8097,
  "\u2581Care": 8098,
  "8,": 8099,
  "\u2581climat": 8100,
  "\u2581Further": 8101,
  "\u2581Cri": 8102,
  "\u2581telephone": 8103,
  "\u2581shape": 8104,
  "\u2581Ainsi": 8105,
  "\u2581avantages": 8106,
  "\u2581California": 8107,
  "\u0163e": 8108,
  "\u2581ain": 8109,
  "\u2581USD": 8110,
  "\u2581conseils": 8111,
  "\u2581database": 8112,
  "\u2581plastic": 8113,
  "\u2581CH": 8114,
  "\u2581paga": 8115,
  "\u2581130": 8116,
  "damente": 8117,
  "tile": 8118,
  "\u258178": 8119,
  "\u2581fal": 8120,
  "\u2581Poland": 8121,
  "rage": 8122,
  "\u2581decis\u00e3o": 8123,
  "\u2581Adam": 8124,
  "\u2581Korea": 8125,
  "nny": 8126,
  "\u2581pr\u00f3ximo": 8127,
  "iano": 8128,
  "\u2581Cre": 8129,
  "rus": 8130,
  "\u2581ancient": 8131,
  "\u2581sair": 8132,
  "\u2581cars": 8133,
  "\u2581Mediterranean": 8134,
  "\u2581Market": 8135,
  "media": 8136,
  "\u2581totalmente": 8137,
  "\u258179": 8138,
  "\u2581m\u00fasica": 8139,
  "uni": 8140,
  "\u2581pied": 8141,
  "\u2581cita": 8142,
  "\u2581delay": 8143,
  "\u2581especiales": 8144,
  "ition": 8145,
  "\u2581relief": 8146,
  "\u2581Travel": 8147,
  "eron": 8148,
  "\u2581lesquelles": 8149,
  "\u2581targets": 8150,
  "\u2581feature": 8151,
  "\u2581presentado": 8152,
  "\u2581bou": 8153,
  "\u2581anual": 8154,
  "\u2581dates": 8155,
  "\u2581qualsiasi": 8156,
  "\u2581Northern": 8157,
  "\u2581trafic": 8158,
  "\u2581Hy": 8159,
  "\u2581sup\u00e9rieur": 8160,
  "\u2581Caribbean": 8161,
  "assurance": 8162,
  "\u2581symptoms": 8163,
  "FA": 8164,
  "As": 8165,
  "\u2581quick": 8166,
  "\u2581escrito": 8167,
  "\u2581contacts": 8168,
  "\u2581refiere": 8169,
  "\u2581Louis": 8170,
  "\u2581shower": 8171,
  "\u2581witness": 8172,
  "\u2581increases": 8173,
  "\u2581supplies": 8174,
  "\u2581attitude": 8175,
  "\u2581extend": 8176,
  "\u2581CESE": 8177,
  "\u2581planes": 8178,
  "\u2581obtenu": 8179,
  "\u2581operators": 8180,
  "ci\u00f3": 8181,
  "\u2581marked": 8182,
  "\u2581limites": 8183,
  "\u2581$2": 8184,
  "Ho": 8185,
  "\u2581Nova": 8186,
  "\u00eet": 8187,
  "\u2581consists": 8188,
  "\u2581band": 8189,
  "\u2581pres": 8190,
  "sider": 8191,
  "cc": 8192,
  "\u2581ah\u00ed": 8193,
  "\u2581minor": 8194,
  "\u2581posici\u00f3n": 8195,
  "bli": 8196,
  "-20": 8197,
  "sar": 8198,
  "\u2581actos": 8199,
  "\u2581p\u00e9nale": 8200,
  "culo": 8201,
  "\u2581ge": 8202,
  "ill": 8203,
  "\u2581Pr\u00e9": 8204,
  "\u2581asegurar": 8205,
  "ibi": 8206,
  "\u2581quantity": 8207,
  "\u2581promise": 8208,
  "\u2581propia": 8209,
  "\u2581trabajar": 8210,
  "\u2581strat\u00e9gies": 8211,
  "7)": 8212,
  "\u2581cazul": 8213,
  "\u2581Far": 8214,
  "\u2581Questions": 8215,
  "\u2581army": 8216,
  "\u2581permitir": 8217,
  "FC": 8218,
  "\u2581valid": 8219,
  "ete": 8220,
  "\u2581expansion": 8221,
  "bilidade": 8222,
  "\u2581tree": 8223,
  "\u2581abrir": 8224,
  "\u00bf": 8225,
  "\u2581pol\u00edtico": 8226,
  "\u2581hacerlo": 8227,
  "\u2581ecc": 8228,
  "\u2581avut": 8229,
  "\u2581caracter\u00edsticas": 8230,
  "ume": 8231,
  "tores": 8232,
  "\u2581gubernamentales": 8233,
  "\u2581Dal": 8234,
  "\u258104": 8235,
  "\u2581enfoque": 8236,
  "\u2581argument": 8237,
  "\u2581enquanto": 8238,
  "\u2581interpretation": 8239,
  "ik": 8240,
  "a\u0163i": 8241,
  "\u2581ii": 8242,
  "\u2581cumplir": 8243,
  "\u2581respeito": 8244,
  "\u2581Fort": 8245,
  "\u2581acid": 8246,
  "\u2581diversity": 8247,
  "\u2581poderia": 8248,
  "\u2581oltre": 8249,
  "\u2581collected": 8250,
  "\u2581inde": 8251,
  "\u2581mountain": 8252,
  "\u2581beauty": 8253,
  "ug": 8254,
  "\u2581pi\u00e8ces": 8255,
  "\u2581DI": 8256,
  "\u2581Cet": 8257,
  "0.00": 8258,
  "\u2581considering": 8259,
  "dal": 8260,
  "ular": 8261,
  "ffe": 8262,
  "\u2581sci": 8263,
  "AIDS": 8264,
  "tier": 8265,
  "mpe": 8266,
  "\u2581Unido": 8267,
  "\u2581reducci\u00f3n": 8268,
  "\u2581sectores": 8269,
  "labor": 8270,
  "\u2581Labour": 8271,
  "\u2581CA": 8272,
  "\u2581strat\u00e9gique": 8273,
  "Ba": 8274,
  "\u2581DU": 8275,
  "\u2581covering": 8276,
  "\u2581disabilities": 8277,
  "RM": 8278,
  "\u2581repr\u00e9sente": 8279,
  "siva": 8280,
  "\u2581relax": 8281,
  "\u2581letto": 8282,
  "\u2581luogo": 8283,
  "gada": 8284,
  "\u2581realize": 8285,
  "\u2581independence": 8286,
  "vic": 8287,
  "\u2581elegir": 8288,
  "\u2581currency": 8289,
  "\u2581registro": 8290,
  "\u2581maintained": 8291,
  "cut": 8292,
  "\u2581Rico": 8293,
  "\u2581Skip": 8294,
  "\u2581submission": 8295,
  "\u2581cable": 8296,
  "\u2581Canadians": 8297,
  "\u2581inferior": 8298,
  "toire": 8299,
  "\u2581adults": 8300,
  "dina": 8301,
  "\u2581algum": 8302,
  "\u2581promoci\u00f3n": 8303,
  "\u2581nucl\u00e9aires": 8304,
  "gge": 8305,
  "\u2581Both": 8306,
  "\u2581M\u00e9xico": 8307,
  "\u2581fell": 8308,
  "\u2581lesquels": 8309,
  "\u2581employee": 8310,
  "\u2581vent": 8311,
  "\u2581Comunidade": 8312,
  "br": 8313,
  "\u2581origine": 8314,
  "\u2581eco": 8315,
  "\u2581Micro": 8316,
  "\u2581diversas": 8317,
  "\u2581Figure": 8318,
  "\u2581cru": 8319,
  "\u2581continu": 8320,
  "aries": 8321,
  "\u2581pleasure": 8322,
  "\u2581risco": 8323,
  "\u2581Mel": 8324,
  "\u2581proporcionar": 8325,
  "\u2581manufacturer": 8326,
  "tino": 8327,
  "mag": 8328,
  "\u2581Ajouter": 8329,
  "ska": 8330,
  "\u2581CC": 8331,
  "n\u021ba": 8332,
  "\u2581invitation": 8333,
  "\u2581r\u0103": 8334,
  "TU": 8335,
  "\u2581AC": 8336,
  "late": 8337,
  "idas": 8338,
  "\u2581sembra": 8339,
  "tua": 8340,
  "\u2581algumas": 8341,
  "\u2581ciudadanos": 8342,
  "\u2581golf": 8343,
  "\u25812013.": 8344,
  "\u2581termina": 8345,
  "\u2581d\u00fb": 8346,
  "\u2581electric": 8347,
  "\u2581assez": 8348,
  "rich": 8349,
  "l\u00e1": 8350,
  "puesta": 8351,
  "\u2581ellas": 8352,
  "VA": 8353,
  "\u2581Big": 8354,
  "\u2581supervision": 8355,
  "lique": 8356,
  "\u2581fuerza": 8357,
  "gur": 8358,
  "\u00e9l": 8359,
  "\u2581sor": 8360,
  "\u2581homo": 8361,
  "\u2581verde": 8362,
  "\u2581mulheres": 8363,
  "\u2581Bulgaria": 8364,
  "\u2581vom": 8365,
  "\u2581g\u00e9n\u00e9ralement": 8366,
  "\u2581souhaite": 8367,
  "\u2581situated": 8368,
  "Un": 8369,
  "\u2581ill": 8370,
  "\u2581queda": 8371,
  "\u2581Chan": 8372,
  "\u2581partenariat": 8373,
  "blo": 8374,
  "\u2581finished": 8375,
  "\u2581bill": 8376,
  "\u2581electricity": 8377,
  "light": 8378,
  "\u2581Rose": 8379,
  "\u2581Budget": 8380,
  "dom": 8381,
  "\u2581Tan": 8382,
  "\u2581therapy": 8383,
  "\u2581cantidad": 8384,
  "\u2581embora": 8385,
  "Les": 8386,
  "\u2581nearly": 8387,
  "\u2581terrible": 8388,
  "ert": 8389,
  "\u2581cultures": 8390,
  "\u2581engaged": 8391,
  "far": 8392,
  "\u2581peine": 8393,
  "\u2581\u00eenc\u0103": 8394,
  "\u2581vostro": 8395,
  "\u2581terrorismo": 8396,
  "\u2581actors": 8397,
  "cru": 8398,
  "\u2581Mur": 8399,
  "\u2581lay": 8400,
  "\u2581Win": 8401,
  "\u2581Allah": 8402,
  "\u2581agentes": 8403,
  "\u2581pasa": 8404,
  "\u2581assume": 8405,
  "rne": 8406,
  "\u2581champ": 8407,
  "\u2581budgetary": 8408,
  "\u2581bur": 8409,
  "\u2581adverse": 8410,
  "\u2581AL": 8411,
  "\u2581attraverso": 8412,
  "cios": 8413,
  "\u2581capaz": 8414,
  "\u2581Bom": 8415,
  "\u2581membership": 8416,
  "dan": 8417,
  "\u2581waters": 8418,
  "\u2581ia": 8419,
  "ell": 8420,
  "\u2581devo": 8421,
  "\u2581pose": 8422,
  "\u2581worldwide": 8423,
  "\u25811970": 8424,
  "\u2581acquis": 8425,
  "\u2581Four": 8426,
  "mission": 8427,
  "\u2581MI": 8428,
  "dade": 8429,
  "itatea": 8430,
  "\u2581finish": 8431,
  "\u2581inclusion": 8432,
  "\u2581Gaza": 8433,
  "rla": 8434,
  "bilidad": 8435,
  "\u2581pol\u00edticos": 8436,
  "\u2581Line": 8437,
  "\u2581attacks": 8438,
  "lim": 8439,
  "\u2581Natural": 8440,
  "\u2581appointment": 8441,
  "\u2581correspondant": 8442,
  "\u2581sec": 8443,
  "\u2581cur": 8444,
  "\u2581dimensions": 8445,
  "\u2581potencial": 8446,
  "tiche": 8447,
  "\u2581continuar": 8448,
  "right": 8449,
  "vul": 8450,
  "\u2581retard": 8451,
  "\u2581r\u00e9gimen": 8452,
  "\u2581J\u00e9sus": 8453,
  "\u2581capitale": 8454,
  "\u2581Key": 8455,
  "\u2581cine": 8456,
  "\u2581r\u00e9gionales": 8457,
  "\u2581Joseph": 8458,
  "\u2581colour": 8459,
  "\u2581maritime": 8460,
  "\u2581regulamento": 8461,
  "\u2581redes": 8462,
  "\u25811982": 8463,
  "\u2581traite": 8464,
  "gu\u00e9": 8465,
  "\u2581passion": 8466,
  "\u2581culpa": 8467,
  "\u2581indirect": 8468,
  "rono": 8469,
  "\u2581Points": 8470,
  "\u2581directiva": 8471,
  "\u2581Gri": 8472,
  "\u2581pago": 8473,
  "\u2581ID": 8474,
  "Ca": 8475,
  "\u2581jud": 8476,
  "altro": 8477,
  "\u2581examples": 8478,
  "\u2581helps": 8479,
  "\u2581ice": 8480,
  "ages": 8481,
  "\u2581harm": 8482,
  "venu": 8483,
  "\u2581allowing": 8484,
  "\u2581humano": 8485,
  "exp\u00e9rience": 8486,
  "\u2581Beach": 8487,
  "\u2581ISO": 8488,
  "\u2581Wednesday": 8489,
  "\u2581estrategia": 8490,
  "nelle": 8491,
  "\u2581loved": 8492,
  "\u2581prezzo": 8493,
  "\u2581Reg": 8494,
  "\u2581codes": 8495,
  "tech": 8496,
  "\u2581Char": 8497,
  "win": 8498,
  "ello": 8499,
  "\u2581presents": 8500,
  "class": 8501,
  "-9": 8502,
  "\u2581truly": 8503,
  "\u2581conflits": 8504,
  "n\u021b\u0103": 8505,
  "\u2581Tengo": 8506,
  "\u2581sought": 8507,
  "\u2581Class": 8508,
  "t\u00f3rio": 8509,
  "\u2581alte": 8510,
  "\u25811.2": 8511,
  "\u2581taste": 8512,
  "bat": 8513,
  "\u2581iron": 8514,
  "\u00e2ncia": 8515,
  "\u2581easier": 8516,
  "IG": 8517,
  "\u2581worse": 8518,
  "\u2581tourism": 8519,
  "\u2581ap": 8520,
  "\u2581interview": 8521,
  "\u2581genera": 8522,
  "\u2581Tar": 8523,
  "\u2581esperar": 8524,
  "\u2581totally": 8525,
  "\u2581CI": 8526,
  "\u2581ocupa": 8527,
  "verse": 8528,
  "\u2581fr": 8529,
  "sson": 8530,
  "\u2581none": 8531,
  "\u2581leaves": 8532,
  "\u2581competencia": 8533,
  "WP": 8534,
  "\u2581pri": 8535,
  "\u2581Welcome": 8536,
  "\u2581Software": 8537,
  "ego": 8538,
  "Qui\u00e9n": 8539,
  "\u2581appreciate": 8540,
  "\u2581perder": 8541,
  "\u2581UNCTAD": 8542,
  "cycl": 8543,
  "\u2581esposa": 8544,
  "\u2581poids": 8545,
  "\u2581d\u00e9part": 8546,
  "\u2581impression": 8547,
  "\u2581fuerzas": 8548,
  "Mar": 8549,
  "\u2581AS": 8550,
  "\u2581Usted": 8551,
  "\u2581aten": 8552,
  "\u2581ONG": 8553,
  "\u2581password": 8554,
  "\u2581beat": 8555,
  "\u2581facing": 8556,
  "\u2581mot": 8557,
  "\u2581Sport": 8558,
  "\u2581toward": 8559,
  "\u2581offrir": 8560,
  "\u2581installed": 8561,
  "\u2581reflected": 8562,
  "\u2581biennium": 8563,
  "cimento": 8564,
  "\u2581edition": 8565,
  "\u2581fix": 8566,
  "\u2581designated": 8567,
  "\u2581uniquement": 8568,
  "\u2581tel\u00e9fono": 8569,
  "\u2581rea": 8570,
  "\u2581irre": 8571,
  "\u2581utilizaci\u00f3n": 8572,
  "Bo": 8573,
  "BC": 8574,
  "abilit\u00e9": 8575,
  "\u2581Ku": 8576,
  "\u2581for\u00e7a": 8577,
  "\u2581authorized": 8578,
  "\u2581paiement": 8579,
  "\u2581bloc": 8580,
  "\u2581slow": 8581,
  "\u2581acuerdos": 8582,
  "\u2581progetto": 8583,
  "hn": 8584,
  "box": 8585,
  "\u2581familles": 8586,
  "\u2581estima": 8587,
  "\u2581r\u00e9seaux": 8588,
  "\u2581comunidades": 8589,
  "\u2581Cas": 8590,
  "\u2581diferencia": 8591,
  "\u25813:": 8592,
  "\u2581visa": 8593,
  "\u2581button": 8594,
  "\u2581Forces": 8595,
  "\u258182": 8596,
  "\u2581Fil": 8597,
  "\u2581festival": 8598,
  "\u2581ambos": 8599,
  "NU": 8600,
  "\u2581modifier": 8601,
  "\u2581dix": 8602,
  "\u2581delegaci\u00f3n": 8603,
  "\u2581incluye": 8604,
  "\u2581closer": 8605,
  "\u2581sangue": 8606,
  "\u2581obligaciones": 8607,
  "\u2581privacy": 8608,
  "VE": 8609,
  "\u2581inform\u00e9": 8610,
  "\u2581nucleares": 8611,
  "\u2581Source": 8612,
  "\u2581facts": 8613,
  "\u2581Mis": 8614,
  "\u2581assure": 8615,
  "r\u00e9s": 8616,
  "\u2581facility": 8617,
  "................": 8618,
  "\u2581ratification": 8619,
  "\u2581pou": 8620,
  "rac": 8621,
  "\u2581inoltre": 8622,
  "\u2581posizione": 8623,
  "\u2581fri": 8624,
  "\u258181": 8625,
  "\u2581formato": 8626,
  "\u2581s\u00e9lection": 8627,
  "coli": 8628,
  "\u2581110": 8629,
  "/11": 8630,
  "\u2581mat\u00e9ria": 8631,
  "\u2581adaptation": 8632,
  "\u2581acciones": 8633,
  "\u2581fotos": 8634,
  "\u2581player": 8635,
  "\u2581pieces": 8636,
  "\u2581doute": 8637,
  "\u2581presentaci\u00f3n": 8638,
  "JO": 8639,
  "lier": 8640,
  "\u2581SO": 8641,
  "\u2581porter": 8642,
  "\u2581pedido": 8643,
  "\u2581milh\u00f5es": 8644,
  "\u2581entendu": 8645,
  "\u2581EL": 8646,
  "\u2581Follow": 8647,
  "\u2581inicial": 8648,
  "\u2581fui": 8649,
  "date": 8650,
  "\u2581majorit\u00e9": 8651,
  "accordo": 8652,
  "\u2581dovrebbe": 8653,
  "ath": 8654,
  "\u2581determination": 8655,
  "down": 8656,
  "\u2581quasi": 8657,
  "\u2581m\u00e9todos": 8658,
  "\u2581trends": 8659,
  "\u2581situa\u00e7\u00e3o": 8660,
  "sina": 8661,
  "\u2581europ\u00e9ennes": 8662,
  "\u2581Could": 8663,
  "\u2581count": 8664,
  "\u2581fifty": 8665,
  "\u2581functioning": 8666,
  "\u2581Cho": 8667,
  "iana": 8668,
  "\u2581height": 8669,
  "\u2581Hostel": 8670,
  "\u2581entender": 8671,
  "\u2581gentlemen": 8672,
  "\u2581\u00eel": 8673,
  "\u2581dor": 8674,
  "\u2581Ap": 8675,
  "\u2581preparar": 8676,
  "\u2581sentence": 8677,
  "cono": 8678,
  "\u2581display": 8679,
  "\u2581preso": 8680,
  "af": 8681,
  "\u2581DLL": 8682,
  "\u2581iniciativa": 8683,
  "-01": 8684,
  "\u2581programming": 8685,
  "\u2581(5": 8686,
  "\u2581conscience": 8687,
  "\u2581procura": 8688,
  "\u2581m\u00eames": 8689,
  "\u2581pueblos": 8690,
  "\u2581filles": 8691,
  "\u2581impacto": 8692,
  "\u258108": 8693,
  "spect": 8694,
  "isce": 8695,
  "\u2581volver": 8696,
  "\u2581simples": 8697,
  "\u2581\u015ftiu": 8698,
  "\u2581COMMISSION": 8699,
  "\u2581atunci": 8700,
  "\u2581stone": 8701,
  "\u2581generate": 8702,
  "ava": 8703,
  "\u2581atteindre": 8704,
  "\u2581Millennium": 8705,
  "\u2581devons": 8706,
  "\u2581Employment": 8707,
  "rk": 8708,
  "\u2581judgment": 8709,
  "\u2581pr\u00e9paration": 8710,
  "\u2581compare": 8711,
  "\u2581Rwanda": 8712,
  "ecu": 8713,
  "\u2581activa": 8714,
  "vos": 8715,
  "\u2581fighting": 8716,
  "\u2581employed": 8717,
  "cil": 8718,
  "\u2581Vienna": 8719,
  "\u2581spe": 8720,
  "\u2581construcci\u00f3n": 8721,
  "\u2581seconds": 8722,
  "lev": 8723,
  "\u2581garde": 8724,
  "\u2581inclusive": 8725,
  "\u2581acquisition": 8726,
  "\u2581baja": 8727,
  "\u2581militaire": 8728,
  "\u2581Sous": 8729,
  "nement": 8730,
  "\u2581establecido": 8731,
  "\u2581Fue": 8732,
  "\u2581llama": 8733,
  "\u2581marcha": 8734,
  "\u2581(18": 8735,
  "\u2581Crime": 8736,
  "\u2581applying": 8737,
  "\u2581v\u00e3o": 8738,
  "\u2581quest\u00e3o": 8739,
  "\u2581propio": 8740,
  "\u2581Tor": 8741,
  "\u2581problemi": 8742,
  "\u2581whereas": 8743,
  "\u2581loin": 8744,
  "\u2581gros": 8745,
  "bert": 8746,
  "hen": 8747,
  "\u2581approuv\u00e9": 8748,
  "\u2581bueno": 8749,
  "\u2581autant": 8750,
  "ateur": 8751,
  "\u2581padres": 8752,
  "sky": 8753,
  "tem": 8754,
  "\u2581peuples": 8755,
  "\u2581quieres": 8756,
  "\u2581candidates": 8757,
  "\u2581relatively": 8758,
  "\u2581ultra": 8759,
  "\u2581parc": 8760,
  "\u2581guarantees": 8761,
  "\u2581Political": 8762,
  "\u2581connu": 8763,
  "cker": 8764,
  "\u2581rent": 8765,
  "\u2581alma": 8766,
  "\u2581pointed": 8767,
  "\u2581secci\u00f3n": 8768,
  "posto": 8769,
  "\u00e9t\u00e9": 8770,
  "\u2581soft": 8771,
  "\u2581montre": 8772,
  "\u2581clairement": 8773,
  "cr": 8774,
  "\u2581prea": 8775,
  "\u2581Document": 8776,
  "\u2581Porto": 8777,
  "\u2581Road": 8778,
  "\u2581Canadiens": 8779,
  "rado": 8780,
  "\u2581difficult\u00e9s": 8781,
  "\u2581Gold": 8782,
  "\u2581tor": 8783,
  "\u2581cambios": 8784,
  "\u2581subparagraph": 8785,
  "tons": 8786,
  "fr": 8787,
  "\u2581accompanied": 8788,
  "\u2581contient": 8789,
  "\u2581vei": 8790,
  "uga": 8791,
  "\u2581Secretar\u00eda": 8792,
  "trans": 8793,
  "\u258174": 8794,
  "\u2581humains": 8795,
  "\u2581Cada": 8796,
  "\u2581conflicts": 8797,
  "\u2581exterior": 8798,
  "\u2581petites": 8799,
  "\u2581pos": 8800,
  "\u2581economies": 8801,
  "\u2581VII": 8802,
  "\u00cd": 8803,
  "\u2581Quero": 8804,
  "\u2581Nombre": 8805,
  "\u2581dispo": 8806,
  "\u2581agricole": 8807,
  "\u2581Wall": 8808,
  "ward": 8809,
  "position": 8810,
  "\u2581produ\u00e7\u00e3o": 8811,
  "\u2581dispone": 8812,
  "9,": 8813,
  "\u2581consecuencia": 8814,
  "\u2581till": 8815,
  "\u2581mercados": 8816,
  "\u2581happening": 8817,
  "\u2581potrebbe": 8818,
  "\u2581corso": 8819,
  "\u2581Voi": 8820,
  "\u2581farmers": 8821,
  "\u2581corte": 8822,
  "gate": 8823,
  "EG": 8824,
  "\u2581puisse": 8825,
  "aje": 8826,
  "\u2581menores": 8827,
  "medi": 8828,
  "\u2581Everything": 8829,
  "\u2581flights": 8830,
  "\u2581Catholic": 8831,
  "e\u015fti": 8832,
  "\u2581dear": 8833,
  "\u2581meglio": 8834,
  "\u2581glad": 8835,
  "2%": 8836,
  "\u2581undertakings": 8837,
  "\u2581automatically": 8838,
  "\u2581significativa": 8839,
  "\u2581incident": 8840,
  "\u2581mani": 8841,
  "\u2581sc": 8842,
  "\u2581comer": 8843,
  "cate": 8844,
  "cole": 8845,
  "hal": 8846,
  "\u2581Norte": 8847,
  "ulation": 8848,
  "\u2581attempt": 8849,
  "\u2581vient": 8850,
  "\u25811000": 8851,
  "\u2581Quel": 8852,
  "\u2581Without": 8853,
  "\u2581Estas": 8854,
  "\u2581concepto": 8855,
  "\u2581\u00f3": 8856,
  "\u2581strict": 8857,
  "\u2581expertos": 8858,
  "-15": 8859,
  "\u2581informa\u00e7\u00e3o": 8860,
  "\u2581trait": 8861,
  "divi": 8862,
  "\u2581connaissance": 8863,
  "\u2581alimentos": 8864,
  "\u2581pleinement": 8865,
  "heure": 8866,
  "\u2581Mother": 8867,
  "\u2581addressing": 8868,
  "\u2581formed": 8869,
  "mic": 8870,
  "\u2581mix": 8871,
  "tima": 8872,
  "\u258106": 8873,
  "\u2581Malta": 8874,
  "\u2581implications": 8875,
  "\u2581constituent": 8876,
  "-11": 8877,
  "eg": 8878,
  "\u2581produ": 8879,
  "\u2581entity": 8880,
  "\u2581understood": 8881,
  "\u2581maladie": 8882,
  "\u2581engagements": 8883,
  "\u2581burden": 8884,
  "ced": 8885,
  "tido": 8886,
  "\u2581t\u00e9cnicas": 8887,
  "\u2581trees": 8888,
  "\u2581venta": 8889,
  "\u258103": 8890,
  "\u2581Uni": 8891,
  "\u2581Wien": 8892,
  "\u2581eram": 8893,
  "\u2581successfully": 8894,
  "\u258109": 8895,
  "wer": 8896,
  "\u2581expenses": 8897,
  "\u2581libera": 8898,
  "pho": 8899,
  "\u2581Temos": 8900,
  "\u2581Press": 8901,
  "\u2581contrary": 8902,
  "\u2581commerciale": 8903,
  "\u2581r\u0103u": 8904,
  "Li": 8905,
  "\u2581plate": 8906,
  "\u2581camere": 8907,
  "\u2581fees": 8908,
  "\u2581representante": 8909,
  "\u2581sept": 8910,
  "\u2581speech": 8911,
  "ivo": 8912,
  "\u2581reforms": 8913,
  "ibile": 8914,
  "ving": 8915,
  "\u2581pesar": 8916,
  "\u2581hum": 8917,
  "\u2581C\u00f3digo": 8918,
  "\u2581acord": 8919,
  "\u2581atmosphere": 8920,
  "\u2581Aunque": 8921,
  "\u2581letters": 8922,
  "\u2581platform": 8923,
  "\u2581Place": 8924,
  "\u2581register": 8925,
  "\u2581pouvoirs": 8926,
  "\u2581Color": 8927,
  "\u2581Environmental": 8928,
  "\u2581r\u00e9aliser": 8929,
  "\u2581communautaires": 8930,
  "etti": 8931,
  "\u2581Saturday": 8932,
  "\u2581Info": 8933,
  "issant": 8934,
  "\u2581v\u00e9hicule": 8935,
  "\u2581module": 8936,
  "\u2581arrival": 8937,
  "\u2581covers": 8938,
  "head": 8939,
  "\u2581shop": 8940,
  "\u2581Administrative": 8941,
  "\u2581Sau": 8942,
  "\u2581fruits": 8943,
  "\u2581Creo": 8944,
  "\u2581Blue": 8945,
  "\u2581Czech": 8946,
  "rro": 8947,
  "arte": 8948,
  "\u2581Apartment": 8949,
  "\u2581port\u00e9e": 8950,
  "\u2581reviewed": 8951,
  "investissement": 8952,
  "\u2581habla": 8953,
  "\u2581alg\u00fan": 8954,
  "\u2581expand": 8955,
  "\u2581bought": 8956,
  "\u2581Love": 8957,
  "\u2581maneira": 8958,
  "\u2581r\u00e9gionaux": 8959,
  "\u2581Asuntos": 8960,
  "\u2581senso": 8961,
  "\u2581prop\u00f3sito": 8962,
  "\u015fte": 8963,
  "\u2581adult": 8964,
  "\u00e9quipe": 8965,
  "illo": 8966,
  "\u2581arrest": 8967,
  "\u2581siglo": 8968,
  "\u2581Haut": 8969,
  "\u2581Send": 8970,
  "\u2581AT": 8971,
  "\u2581terrorist": 8972,
  "\u2581constitui": 8973,
  "\u2581Russie": 8974,
  "\u2581Sul": 8975,
  "ienne": 8976,
  "\u2581vrei": 8977,
  "\u2581territories": 8978,
  "\u00a1": 8979,
  "haus": 8980,
  "Car": 8981,
  "\u2581investissements": 8982,
  "guer": 8983,
  "mique": 8984,
  "\u2581puestos": 8985,
  "\u2581Swiss": 8986,
  "\u2581Countries": 8987,
  "\u2581fault": 8988,
  "\u2581estilo": 8989,
  "zze": 8990,
  "\u2581rico": 8991,
  "\u2581Guinea": 8992,
  "\u2581deriva": 8993,
  "\u2581deals": 8994,
  "\u25811992,": 8995,
  "\u2581Among": 8996,
  "\u2581calculated": 8997,
  "\u2581Declaraci\u00f3n": 8998,
  "\u2581palabra": 8999,
  "az\u0103": 9000,
  "\u2581Papa": 9001,
  "\u2581norte": 9002,
  "\u2581infra": 9003,
  "\u2581proces": 9004,
  "\u2581collect": 9005,
  "ency": 9006,
  "pur": 9007,
  "\u2581procurement": 9008,
  "naire": 9009,
  "\u2581celebrada": 9010,
  "\u2581\u00eenainte": 9011,
  "\u2581owner": 9012,
  "\u2581conna\u00eetre": 9013,
  "\u2581[2]": 9014,
  "jas": 9015,
  "\u2581d\u00e9velopper": 9016,
[...]
